{
  "vocab": [
    "<|bos|>",
    "<|eos|>",
    "\t",
    "\n",
    " ",
    "!",
    "\"",
    "#",
    "$",
    "%",
    "&",
    "'",
    "(",
    ")",
    "*",
    "+",
    ",",
    "-",
    ".",
    "/",
    "0",
    "1",
    "2",
    "3",
    "4",
    "5",
    "6",
    "7",
    "8",
    "9",
    ":",
    ";",
    "<",
    "=",
    ">",
    "?",
    "@",
    "A",
    "B",
    "C",
    "D",
    "E",
    "F",
    "G",
    "H",
    "I",
    "J",
    "K",
    "L",
    "M",
    "N",
    "O",
    "P",
    "Q",
    "R",
    "S",
    "T",
    "U",
    "V",
    "W",
    "X",
    "Y",
    "Z",
    "[",
    "]",
    "^",
    "_",
    "`",
    "a",
    "b",
    "c",
    "d",
    "e",
    "f",
    "g",
    "h",
    "i",
    "j",
    "k",
    "l",
    "m",
    "n",
    "o",
    "p",
    "q",
    "r",
    "s",
    "t",
    "u",
    "v",
    "w",
    "x",
    "y",
    "z",
    "{",
    "|",
    "}",
    " ",
    "£",
    "§",
    "©",
    "«",
    "°",
    "¹",
    "º",
    "»",
    "½",
    "À",
    "Á",
    "Ä",
    "Æ",
    "Ç",
    "È",
    "É",
    "Ê",
    "Ñ",
    "Ó",
    "Ô",
    "Ú",
    "Ü",
    "à",
    "á",
    "â",
    "ã",
    "ä",
    "æ",
    "ç",
    "è",
    "é",
    "ê",
    "ë",
    "í",
    "î",
    "ï",
    "ñ",
    "ò",
    "ó",
    "ô",
    "õ",
    "ö",
    "ù",
    "ú",
    "û",
    "ü",
    "ý",
    "ā",
    "Œ",
    "œ",
    "ſ",
    "̸",
    "Α",
    "Γ",
    "Δ",
    "Ε",
    "Η",
    "Θ",
    "Ι",
    "Κ",
    "Μ",
    "Ν",
    "Ο",
    "Π",
    "ά",
    "έ",
    "ή",
    "ί",
    "α",
    "β",
    "γ",
    "δ",
    "ε",
    "ζ",
    "η",
    "θ",
    "ι",
    "κ",
    "λ",
    "μ",
    "ν",
    "ξ",
    "ο",
    "π",
    "ρ",
    "ς",
    "σ",
    "τ",
    "υ",
    "φ",
    "χ",
    "ω",
    "ό",
    "ύ",
    "ώ",
    "ϰ",
    "ו",
    "ח",
    "ἀ",
    "ἂ",
    "ἄ",
    "ἆ",
    "Ἀ",
    "ἐ",
    "ἑ",
    "ἕ",
    "ἡ",
    "ἤ",
    "ἦ",
    "ἰ",
    "ἱ",
    "ἴ",
    "ἵ",
    "ἷ",
    "ὁ",
    "ὄ",
    "ὅ",
    "Ὀ",
    "Ὁ",
    "Ὅ",
    "ὐ",
    "ὑ",
    "ὔ",
    "ὡ",
    "Ὡ",
    "ὰ",
    "ά",
    "ὲ",
    "έ",
    "ὴ",
    "ὶ",
    "ί",
    "ὸ",
    "ό",
    "ὺ",
    "ύ",
    "ὼ",
    "ᾳ",
    "᾽",
    "ῆ",
    "ῇ",
    "ῖ",
    "ῤ",
    "ῦ",
    "ῳ",
    "ῶ",
    "ῷ",
    "‎",
    "‏",
    "‐",
    "–",
    "—",
    "‘",
    "’",
    "“",
    "”",
    "†",
    "•",
    "…",
    "′",
    "″",
    "✠",
    "・",
    "e ",
    "th",
    "d ",
    "t ",
    "s ",
    "in",
    ", ",
    "er",
    "an",
    "ou",
    " th",
    "on",
    "en",
    "y ",
    "to",
    "or",
    "ar",
    "ed ",
    "and ",
    "of",
    " h",
    "ing",
    "re",
    ". ",
    " the ",
    " s",
    "ll",
    " a",
    "\n\n",
    "ha",
    " w",
    "is ",
    "es",
    "the ",
    "om",
    "ti",
    "  ",
    "ch",
    "at ",
    "no",
    "as ",
    " m",
    "is",
    "he ",
    "it",
    "to ",
    "el",
    "as",
    "er ",
    ", and ",
    "for",
    "le",
    "you",
    "at",
    "ing ",
    "e\n",
    "gh",
    ".\n\n",
    "ith",
    "be",
    "al",
    "ow",
    "im",
    "ed",
    "of ",
    "ir",
    "wh",
    "ve ",
    "ur",
    "st",
    "ac",
    "ri",
    "ver",
    "e, ",
    "li",
    "us",
    "ld ",
    "un",
    "em",
    " c",
    "it ",
    "ro",
    "ad",
    "was ",
    "a ",
    "am",
    "ere ",
    "le ",
    "es ",
    "with",
    "os",
    "ter",
    "and",
    ",\n",
    "ll ",
    "ly ",
    "that ",
    "tion",
    "ear",
    "ai",
    "ut ",
    "o ",
    "en ",
    "oo",
    "”\n\n",
    "ain",
    "ay",
    "    ",
    "not ",
    "ent",
    "up",
    "ec",
    "; ",
    "ic",
    " his ",
    "ould ",
    "an ",
    "ag",
    "all",
    " ha",
    "of the ",
    "I ",
    "id",
    "ak",
    "’s ",
    "be ",
    "our",
    "s, ",
    "ab",
    "ther",
    "had ",
    "in ",
    "se",
    " a ",
    ".\n",
    "ich",
    "fr",
    "his ",
    "oun",
    "res",
    "qu",
    "ough",
    "tr",
    "out ",
    " that ",
    "”\n\n“",
    "ne",
    "now",
    "ent ",
    "if",
    "ay ",
    "il",
    "ey ",
    "igh",
    "but ",
    "aid ",
    " wh",
    ". T",
    "k ",
    "com",
    "on ",
    "him",
    "ce ",
    "de",
    "ap",
    "sh",
    "ul",
    "one ",
    "from",
    "ex",
    "y, ",
    "ol",
    "hat ",
    "sel",
    "con",
    "ell",
    "in the ",
    " he ",
    "di",
    "t, ",
    "op",
    ",”",
    ":0",
    "pl",
    ". I",
    "An",
    "y\n",
    "do",
    "Mr",
    " him",
    "own",
    "her",
    "t\n",
    ".\n\n“",
    "to the ",
    "per",
    "you ",
    " was ",
    "lo",
    "me ",
    "ation",
    "ce",
    "ev",
    " the\n",
    "self",
    "are ",
    "ill",
    "der",
    "d, ",
    "ted ",
    "ong",
    " with",
    "or ",
    "et ",
    "aw",
    "um",
    "your",
    "et",
    "my ",
    "si",
    " said ",
    "which",
    "av",
    " and ",
    "she ",
    "and\n",
    "by ",
    "And ",
    " my ",
    "so",
    "go",
    "bo",
    "po",
    "uch",
    "s\n",
    " her",
    ".”\n\n“",
    ". H",
    " I",
    "eir",
    "dis",
    "ep",
    "very ",
    "have ",
    "pe",
    "ed, ",
    "pr",
    "par",
    "pro",
    "loo",
    "were ",
    "know",
    "ut",
    "ess ",
    "man",
    "tw",
    "gr",
    "to s",
    "ame ",
    "fe",
    "itt",
    " have ",
    "wor",
    "for ",
    " had ",
    "ome ",
    "d\n",
    "The ",
    "ous",
    "pos",
    "es, ",
    "ten",
    "he",
    "ish",
    "tur",
    "ke ",
    "ked ",
    "of\n",
    "mor",
    "me",
    "ang",
    "’t ",
    "on the ",
    " her ",
    "Th",
    "too",
    "      ",
    "they ",
    "ust ",
    " in",
    "ard",
    "gre",
    "ad ",
    " as ",
    "ther ",
    "ess",
    "other",
    "to\n",
    "ake ",
    "ed\n",
    "st ",
    " at ",
    "bl",
    "ey",
    "au",
    "br",
    "al ",
    "su",
    "ed the ",
    "ck",
    "ter ",
    " this ",
    "af",
    "ly",
    "with ",
    "; and ",
    "ill ",
    "--",
    "ous ",
    "over",
    "would ",
    "her ",
    "is\n",
    " sh",
    "Wh",
    "ever",
    "who",
    "! ",
    "ight ",
    "turn",
    "dr",
    "ach",
    "the\n",
    "But ",
    "pres",
    ". “",
    "thing",
    "cl",
    "tor",
    "end",
    "est ",
    "pp",
    " of",
    " them",
    " to ",
    "litt",
    "ind",
    ". S",
    "fa",
    "any ",
    "fi",
    "gi",
    "ts ",
    " she ",
    ". The ",
    "ound ",
    "rem",
    "fac",
    " which",
    "by",
    "oul",
    "ast ",
    "ful",
    "tain",
    "them",
    " am",
    "ant ",
    "ose ",
    "us ",
    "like ",
    "pre",
    "sha",
    "se ",
    " their",
    "? ",
    "to m",
    "ci",
    "this ",
    ". A",
    "off",
    "ome",
    ".”\n\n",
    "fir",
    "ed to ",
    "ost ",
    "down",
    "ing\n",
    "te",
    "befor",
    ". Th",
    "ind ",
    " all",
    "str",
    "ass",
    "no ",
    " of ",
    "old ",
    "ate ",
    "ing, ",
    "goo",
    ". He ",
    "des",
    "ov",
    "You",
    "arm",
    "way",
    "gl",
    "ought ",
    ",” said ",
    "ud",
    "did ",
    "we ",
    "little ",
    "able ",
    "your ",
    "ow ",
    "long",
    "ade ",
    "ath",
    "Mr. ",
    "the s",
    "been",
    "what ",
    "anc",
    "pec",
    "ite ",
    "day",
    "don",
    "ob",
    "hear",
    "when",
    "so ",
    "s. ",
    "ant",
    "e, and ",
    "ack",
    "tim",
    "thing ",
    "all ",
    "a s",
    "there ",
    "     ",
    "ple",
    ":00",
    "could ",
    "as\n",
    "erv",
    "ure",
    "our ",
    "ure ",
    "tic",
    "ght ",
    "s and ",
    "s, and ",
    "ink",
    "ely ",
    "fl",
    "ave ",
    "at\n",
    "?”\n\n“",
    "been ",
    "’\n\n",
    "ence ",
    "under",
    "ig",
    "fri",
    "I w",
    "car",
    "ef",
    "sw",
    "again",
    "ber",
    ";\n",
    "ing the ",
    " se",
    "co",
    "only ",
    "ion",
    "its ",
    "do ",
    "new",
    " they ",
    "sid",
    "to be ",
    "look",
    "aus",
    "e. ",
    "ance ",
    ",’",
    "ick",
    "plac",
    "n ",
    "ty ",
    "time ",
    "before ",
    "He ",
    ", s",
    "No",
    "a\n",
    " a s",
    "ese ",
    "ble ",
    "ity ",
    "beg",
    "th ",
    "read",
    " con",
    "cr",
    "from ",
    "uc",
    "!”",
    "ord",
    ": ",
    ":01",
    "ard ",
    "en, ",
    "room",
    "s of ",
    "ine ",
    "though",
    "other ",
    "come ",
    "ra",
    " me",
    "ge",
    "ally ",
    "for the ",
    "I s",
    "sai",
    "more ",
    "we",
    "est",
    "upon",
    "it was ",
    " to",
    " mor",
    "in\n",
    "ast",
    " re",
    "coun",
    "from the ",
    "if ",
    "good ",
    "their",
    "ge ",
    "of his ",
    "er, ",
    "vi",
    "ke",
    "hand",
    "by the ",
    "great ",
    "tri",
    "end ",
    "bre",
    "most ",
    "sti",
    " so",
    "tak",
    " me ",
    "ound",
    "I c",
    " man",
    "rough",
    "por",
    "ull",
    "has ",
    "I am",
    "vo",
    "?”",
    " what ",
    "ing a",
    "fer",
    "le, ",
    "made ",
    "gain",
    "bro",
    "inc",
    "tre",
    "ight",
    "ati",
    ". It ",
    "of s",
    "; but ",
    "What ",
    "came ",
    "ed in",
    "son",
    "ed him",
    "ng",
    "ile ",
    "will ",
    "bel",
    "air",
    " as",
    "young",
    "about ",
    "age ",
    "it, ",
    "enc",
    "ed to",
    "bu",
    "form",
    "some ",
    "out",
    "at the ",
    "Mar",
    "uch ",
    "take ",
    "oll",
    "which ",
    "first ",
    "after",
    "how",
    "mo",
    ",\nand ",
    "ers ",
    "Mis",
    "gu",
    " a\n",
    ", but ",
    "even",
    "ip",
    "ark",
    "any",
    "ver ",
    "cc",
    "e.\n\n",
    "augh",
    " their ",
    "Go",
    "inter",
    " And ",
    "mon",
    "rec",
    ", the ",
    "gent",
    "said ",
    "pli",
    "tru",
    "ew",
    "fec",
    "seem",
    "peop",
    " with ",
    "ness ",
    "ated ",
    "he had ",
    "tow",
    " hear",
    "I’",
    "caus",
    "den",
    "tal",
    "ack ",
    "I have ",
    "ee ",
    " he",
    "he was ",
    "then",
    "with the ",
    "’\n\n‘",
    "ER",
    "ght",
    "lif",
    "jo",
    "when ",
    "ist",
    "sp",
    "lef",
    "pass",
    ", as ",
    "pleas",
    "let ",
    "every ",
    "ail",
    "e and ",
    "iv",
    "tt",
    "well",
    "\nthe ",
    "ven",
    "you w",
    "app",
    "day ",
    "Ar",
    "a m",
    "looked ",
    " we ",
    "some",
    "n’t ",
    "cha",
    "I\n",
    "self ",
    " com",
    "arri",
    "tter",
    "where ",
    "ing s",
    "sion",
    "answ",
    "way ",
    "dre",
    "arr",
    "dear",
    "e,\n",
    "peak",
    "serv",
    "go ",
    "s of",
    "lad",
    "ice ",
    ".\n\n‘",
    "hat",
    "..",
    " ab",
    "a, ",
    "It ",
    " sha",
    "sm",
    ":02",
    ". But ",
    "eng",
    "ble",
    "don’t ",
    "ph",
    "orn",
    "lov",
    "ed and ",
    "del",
    "cour",
    "put ",
    "atch",
    "feel",
    "him ",
    "and, ",
    "give ",
    "Miss ",
    "just ",
    "ity",
    "year",
    "ed his ",
    "ree ",
    "ub",
    "in his ",
    "bod",
    "went ",
    ".  ",
    "cer",
    "pri",
    " his\n",
    "tell",
    "e’s ",
    "’ ",
    "hous",
    "should ",
    "get ",
    " st",
    "back",
    "f ",
    "de ",
    "an\n",
    "chil",
    "ly, ",
    "two ",
    "dec",
    "door",
    ", that ",
    "it is ",
    "without ",
    "jec",
    "ush",
    ", and the ",
    "less ",
    "Fr",
    "ash",
    "ise ",
    "ar ",
    "Ch",
    "mis",
    "own ",
    "might ",
    "On",
    "was\n",
    "ious ",
    "a c",
    "old",
    "?\n\n",
    "two",
    "OR",
    "men",
    " more ",
    " again",
    " wor",
    " al",
    "We ",
    "min",
    "hav",
    "ing to ",
    "poin",
    "friend",
    "s the ",
    "must ",
    "ust",
    "liv",
    "fort",
    "say",
    "happ",
    "will",
    "never",
    ", “",
    "cap",
    "never ",
    "left ",
    "of th",
    "can",
    " a m",
    "bur",
    "Well",
    "last ",
    "gn",
    "got ",
    "eas",
    "father",
    "vis",
    "ment",
    "ink ",
    "tion ",
    "did not ",
    "that",
    "ed, and ",
    "mer",
    "My ",
    "’d ",
    "eyes ",
    ". I ",
    "ing his ",
    "cre",
    "e of ",
    "es\n",
    "tin",
    "s.\n\n",
    "ary ",
    " should ",
    "ways ",
    "ank",
    "he\n",
    "up ",
    "open",
    "hel",
    "found ",
    "gen",
    "near",
    "I was ",
    "ed by ",
    "thou",
    "lar",
    "it\n",
    "shall ",
    "cause ",
    "hap",
    "ence",
    "ly\n",
    "who ",
    "fel",
    "Mrs. ",
    "answer",
    "tu",
    "fin",
    "atter",
    "h, ",
    "able",
    "gentle",
    "az",
    "foll",
    "row",
    "return",
    "fic",
    "in a ",
    "ton",
    "wr",
    "my",
    " him ",
    "beli",
    "ings ",
    "ook",
    "foo",
    "pur",
    "emp",
    "man ",
    "cri",
    "call",
    "inn",
    "into",
    "ee",
    "may ",
    "ros",
    "s,\n",
    "quite ",
    "you, ",
    "ed with",
    " some ",
    "ince ",
    "dres",
    " were ",
    " ad",
    " a c",
    "comp",
    " ac",
    "ful ",
    "t of ",
    "their ",
    "of m",
    "knew",
    "id ",
    "ater",
    ". She ",
    " the s",
    "not",
    "appear",
    "oman",
    "of the\n",
    "Mr ",
    "char",
    "fam",
    "bri",
    "nat",
    " there ",
    "\n\n“",
    "word",
    ",’ said ",
    "ation ",
    "pi",
    "king",
    "of a ",
    "\n      ",
    "occ",
    "dou",
    "es, and ",
    "through",
    "HA",
    "back ",
    "gg",
    "yet ",
    "comm",
    "keep",
    "nec",
    " would ",
    "You ",
    "dist",
    ", he ",
    " af",
    "ould",
    "In",
    ".”",
    "ris",
    "every",
    "s of the ",
    "being ",
    "ting ",
    "cur",
    "said, ",
    "qui",
    "low",
    "into the ",
    "betw",
    "ed that ",
    "ign",
    "than",
    "ue ",
    "one",
    "people ",
    "En",
    "head",
    ".\n\nThe ",
    "enough",
    "I m",
    "ever ",
    "Jo",
    "ide ",
    "iz",
    " S",
    "did",
    "night",
    "once ",
    "dif",
    "imp",
    "told ",
    "follow",
    "ess, ",
    "possi",
    "betwe",
    "ily ",
    "ho",
    "full",
    "hor",
    "lear",
    " who",
    "face ",
    "to him",
    "because ",
    ". And ",
    "efor",
    "re ",
    "be\n",
    "till",
    "ond ",
    "reas",
    "inst",
    "tood ",
    "far",
    "ques",
    "cep",
    "felt ",
    "while ",
    "chi",
    "took",
    " he had ",
    "tly ",
    "til",
    ".\n\nA",
    "For",
    "fell",
    "sed ",
    " think",
    "not\n",
    "than ",
    "even ",
    "plain",
    "ty",
    "hal",
    "nothing ",
    "ance",
    ",” ",
    "’s\n",
    "That ",
    " these ",
    " at the ",
    "and the ",
    "sur",
    "sto",
    "in s",
    " hand",
    "I had ",
    "att",
    "irl",
    "ouse",
    "ward",
    "ir ",
    "that\n",
    ", and\n",
    "enter",
    "each",
    "morn",
    "'s ",
    "beh",
    "mom",
    "lic",
    "fear",
    "cons",
    "pris",
    "now ",
    "thy ",
    "fur",
    "time",
    "spo",
    "ORD",
    "light ",
    "pas",
    "giv",
    "rel",
    " about ",
    "such",
    "with a ",
    ".’\n\n‘",
    "stre",
    "had\n",
    "few",
    "te ",
    "ile",
    "ship",
    "ide",
    "exc",
    ". B",
    "gave ",
    "for\n",
    " hav",
    " all ",
    "ently ",
    "much",
    "ried ",
    "of my ",
    "laugh",
    "saw",
    "ment ",
    "is, ",
    "selv",
    "round ",
    "upon the ",
    "hand ",
    "led ",
    "ry ",
    "head ",
    "sk",
    "turned ",
    "a w",
    " which ",
    "draw",
    "EN",
    "the",
    "king ",
    "on, ",
    "ould\n",
    "ness",
    "ting",
    "chang",
    "y, and ",
    "clo",
    "always ",
    "to see ",
    "you\n",
    "ix",
    "to his ",
    "another",
    "find ",
    "LORD",
    "see ",
    ",” he ",
    "aster",
    "sor",
    "doub",
    "sup",
    "bus",
    "person",
    "nex",
    "TER",
    "nothing",
    "body ",
    "ait",
    "itch",
    "ay, ",
    "then ",
    "ere\n",
    "tend",
    "love ",
    ". ‘",
    "tro",
    "es and ",
    "nam",
    "girl",
    "; “",
    "cas",
    "place ",
    "This ",
    "ready ",
    "bes",
    "She ",
    "m ",
    "gener",
    "sec",
    "pow",
    "ather",
    "night ",
    "was",
    "CHA",
    "With",
    "s were ",
    "down ",
    "port",
    "himself",
    " that",
    "I am ",
    "ceiv",
    "said",
    "stand",
    "remain",
    "wind",
    "sion ",
    "toge",
    "p ",
    " could ",
    "ent, ",
    "ah",
    "uf",
    ":\n",
    "brought ",
    "done ",
    "ere",
    "ember",
    "his\n",
    "right ",
    "pic",
    "ition",
    "on\n",
    "expres",
    "death",
    "ve",
    "pect",
    "ion ",
    "all the ",
    "sub",
    "tter ",
    "inde",
    "ung",
    "heard ",
    "law",
    "s that ",
    "uck",
    "TH",
    "leep",
    "them ",
    "against ",
    "!”\n\n",
    "ies ",
    "the m",
    ". Wh",
    "ond",
    "Qu",
    "AN",
    " much",
    "thought ",
    "duc",
    "ed her",
    "wif",
    "lin",
    "question",
    "on his ",
    "onder",
    "led",
    "sen",
    "Pr",
    "long ",
    "ann",
    "ing and ",
    "wal",
    "sider",
    "make ",
    "here ",
    "val"
  ],
  "merges": [
    [
      "e",
      " "
    ],
    [
      "t",
      "h"
    ],
    [
      "d",
      " "
    ],
    [
      "t",
      " "
    ],
    [
      "s",
      " "
    ],
    [
      "i",
      "n"
    ],
    [
      ",",
      " "
    ],
    [
      "e",
      "r"
    ],
    [
      "a",
      "n"
    ],
    [
      "o",
      "u"
    ],
    [
      " ",
      "th"
    ],
    [
      "o",
      "n"
    ],
    [
      "e",
      "n"
    ],
    [
      "y",
      " "
    ],
    [
      "t",
      "o"
    ],
    [
      "o",
      "r"
    ],
    [
      "a",
      "r"
    ],
    [
      "e",
      "d "
    ],
    [
      "an",
      "d "
    ],
    [
      "o",
      "f"
    ],
    [
      " ",
      "h"
    ],
    [
      "in",
      "g"
    ],
    [
      "r",
      "e"
    ],
    [
      ".",
      " "
    ],
    [
      " th",
      "e "
    ],
    [
      " ",
      "s"
    ],
    [
      "l",
      "l"
    ],
    [
      " ",
      "a"
    ],
    [
      "\n",
      "\n"
    ],
    [
      "h",
      "a"
    ],
    [
      " ",
      "w"
    ],
    [
      "i",
      "s "
    ],
    [
      "e",
      "s"
    ],
    [
      "th",
      "e "
    ],
    [
      "o",
      "m"
    ],
    [
      "t",
      "i"
    ],
    [
      " ",
      " "
    ],
    [
      "c",
      "h"
    ],
    [
      "a",
      "t "
    ],
    [
      "n",
      "o"
    ],
    [
      "a",
      "s "
    ],
    [
      " ",
      "m"
    ],
    [
      "i",
      "s"
    ],
    [
      "h",
      "e "
    ],
    [
      "i",
      "t"
    ],
    [
      "to",
      " "
    ],
    [
      "e",
      "l"
    ],
    [
      "a",
      "s"
    ],
    [
      "er",
      " "
    ],
    [
      ", ",
      "and "
    ],
    [
      "f",
      "or"
    ],
    [
      "l",
      "e"
    ],
    [
      "y",
      "ou"
    ],
    [
      "a",
      "t"
    ],
    [
      "ing",
      " "
    ],
    [
      "e",
      "\n"
    ],
    [
      "g",
      "h"
    ],
    [
      ".",
      "\n\n"
    ],
    [
      "i",
      "th"
    ],
    [
      "b",
      "e"
    ],
    [
      "a",
      "l"
    ],
    [
      "o",
      "w"
    ],
    [
      "i",
      "m"
    ],
    [
      "e",
      "d"
    ],
    [
      "of",
      " "
    ],
    [
      "i",
      "r"
    ],
    [
      "w",
      "h"
    ],
    [
      "v",
      "e "
    ],
    [
      "u",
      "r"
    ],
    [
      "s",
      "t"
    ],
    [
      "a",
      "c"
    ],
    [
      "r",
      "i"
    ],
    [
      "v",
      "er"
    ],
    [
      "e",
      ", "
    ],
    [
      "l",
      "i"
    ],
    [
      "u",
      "s"
    ],
    [
      "l",
      "d "
    ],
    [
      "u",
      "n"
    ],
    [
      "e",
      "m"
    ],
    [
      " ",
      "c"
    ],
    [
      "i",
      "t "
    ],
    [
      "r",
      "o"
    ],
    [
      "a",
      "d"
    ],
    [
      "w",
      "as "
    ],
    [
      "a",
      " "
    ],
    [
      "a",
      "m"
    ],
    [
      "er",
      "e "
    ],
    [
      "l",
      "e "
    ],
    [
      "e",
      "s "
    ],
    [
      "w",
      "ith"
    ],
    [
      "o",
      "s"
    ],
    [
      "t",
      "er"
    ],
    [
      "an",
      "d"
    ],
    [
      ",",
      "\n"
    ],
    [
      "ll",
      " "
    ],
    [
      "l",
      "y "
    ],
    [
      "th",
      "at "
    ],
    [
      "ti",
      "on"
    ],
    [
      "e",
      "ar"
    ],
    [
      "a",
      "i"
    ],
    [
      "u",
      "t "
    ],
    [
      "o",
      " "
    ],
    [
      "en",
      " "
    ],
    [
      "o",
      "o"
    ],
    [
      "”",
      "\n\n"
    ],
    [
      "a",
      "in"
    ],
    [
      "a",
      "y"
    ],
    [
      "  ",
      "  "
    ],
    [
      "no",
      "t "
    ],
    [
      "en",
      "t"
    ],
    [
      "u",
      "p"
    ],
    [
      "e",
      "c"
    ],
    [
      ";",
      " "
    ],
    [
      "i",
      "c"
    ],
    [
      " h",
      "is "
    ],
    [
      "ou",
      "ld "
    ],
    [
      "an",
      " "
    ],
    [
      "a",
      "g"
    ],
    [
      "a",
      "ll"
    ],
    [
      " h",
      "a"
    ],
    [
      "of",
      " the "
    ],
    [
      "I",
      " "
    ],
    [
      "i",
      "d"
    ],
    [
      "a",
      "k"
    ],
    [
      "’",
      "s "
    ],
    [
      "b",
      "e "
    ],
    [
      "ou",
      "r"
    ],
    [
      "s",
      ", "
    ],
    [
      "a",
      "b"
    ],
    [
      "th",
      "er"
    ],
    [
      "ha",
      "d "
    ],
    [
      "in",
      " "
    ],
    [
      "s",
      "e"
    ],
    [
      " a",
      " "
    ],
    [
      ".",
      "\n"
    ],
    [
      "i",
      "ch"
    ],
    [
      "f",
      "r"
    ],
    [
      "h",
      "is "
    ],
    [
      "ou",
      "n"
    ],
    [
      "re",
      "s"
    ],
    [
      "q",
      "u"
    ],
    [
      "ou",
      "gh"
    ],
    [
      "t",
      "r"
    ],
    [
      "ou",
      "t "
    ],
    [
      " th",
      "at "
    ],
    [
      "”\n\n",
      "“"
    ],
    [
      "n",
      "e"
    ],
    [
      "no",
      "w"
    ],
    [
      "en",
      "t "
    ],
    [
      "i",
      "f"
    ],
    [
      "a",
      "y "
    ],
    [
      "i",
      "l"
    ],
    [
      "e",
      "y "
    ],
    [
      "i",
      "gh"
    ],
    [
      "b",
      "ut "
    ],
    [
      "ai",
      "d "
    ],
    [
      " w",
      "h"
    ],
    [
      ". ",
      "T"
    ],
    [
      "k",
      " "
    ],
    [
      "c",
      "om"
    ],
    [
      "on",
      " "
    ],
    [
      "h",
      "im"
    ],
    [
      "c",
      "e "
    ],
    [
      "d",
      "e"
    ],
    [
      "a",
      "p"
    ],
    [
      "s",
      "h"
    ],
    [
      "u",
      "l"
    ],
    [
      "on",
      "e "
    ],
    [
      "fr",
      "om"
    ],
    [
      "e",
      "x"
    ],
    [
      "y",
      ", "
    ],
    [
      "o",
      "l"
    ],
    [
      "ha",
      "t "
    ],
    [
      "s",
      "el"
    ],
    [
      "c",
      "on"
    ],
    [
      "e",
      "ll"
    ],
    [
      "in",
      " the "
    ],
    [
      " h",
      "e "
    ],
    [
      "d",
      "i"
    ],
    [
      "t",
      ", "
    ],
    [
      "o",
      "p"
    ],
    [
      ",",
      "”"
    ],
    [
      ":",
      "0"
    ],
    [
      "p",
      "l"
    ],
    [
      ". ",
      "I"
    ],
    [
      "A",
      "n"
    ],
    [
      "y",
      "\n"
    ],
    [
      "d",
      "o"
    ],
    [
      "M",
      "r"
    ],
    [
      " h",
      "im"
    ],
    [
      "ow",
      "n"
    ],
    [
      "h",
      "er"
    ],
    [
      "t",
      "\n"
    ],
    [
      ".\n\n",
      "“"
    ],
    [
      "to",
      " the "
    ],
    [
      "p",
      "er"
    ],
    [
      "you",
      " "
    ],
    [
      " w",
      "as "
    ],
    [
      "l",
      "o"
    ],
    [
      "m",
      "e "
    ],
    [
      "a",
      "tion"
    ],
    [
      "c",
      "e"
    ],
    [
      "e",
      "v"
    ],
    [
      " th",
      "e\n"
    ],
    [
      "sel",
      "f"
    ],
    [
      "ar",
      "e "
    ],
    [
      "i",
      "ll"
    ],
    [
      "d",
      "er"
    ],
    [
      "d",
      ", "
    ],
    [
      "t",
      "ed "
    ],
    [
      "on",
      "g"
    ],
    [
      " w",
      "ith"
    ],
    [
      "or",
      " "
    ],
    [
      "e",
      "t "
    ],
    [
      "a",
      "w"
    ],
    [
      "u",
      "m"
    ],
    [
      "you",
      "r"
    ],
    [
      "e",
      "t"
    ],
    [
      "m",
      "y "
    ],
    [
      "s",
      "i"
    ],
    [
      " s",
      "aid "
    ],
    [
      "wh",
      "ich"
    ],
    [
      "a",
      "v"
    ],
    [
      " ",
      "and "
    ],
    [
      "s",
      "he "
    ],
    [
      "and",
      "\n"
    ],
    [
      "b",
      "y "
    ],
    [
      "An",
      "d "
    ],
    [
      " m",
      "y "
    ],
    [
      "s",
      "o"
    ],
    [
      "g",
      "o"
    ],
    [
      "b",
      "o"
    ],
    [
      "p",
      "o"
    ],
    [
      "u",
      "ch"
    ],
    [
      "s",
      "\n"
    ],
    [
      " h",
      "er"
    ],
    [
      ".",
      "”\n\n“"
    ],
    [
      ". ",
      "H"
    ],
    [
      " ",
      "I"
    ],
    [
      "e",
      "ir"
    ],
    [
      "d",
      "is"
    ],
    [
      "e",
      "p"
    ],
    [
      "ver",
      "y "
    ],
    [
      "ha",
      "ve "
    ],
    [
      "p",
      "e"
    ],
    [
      "ed",
      ", "
    ],
    [
      "p",
      "r"
    ],
    [
      "p",
      "ar"
    ],
    [
      "p",
      "ro"
    ],
    [
      "l",
      "oo"
    ],
    [
      "w",
      "ere "
    ],
    [
      "k",
      "now"
    ],
    [
      "u",
      "t"
    ],
    [
      "es",
      "s "
    ],
    [
      "m",
      "an"
    ],
    [
      "t",
      "w"
    ],
    [
      "g",
      "r"
    ],
    [
      "to",
      " s"
    ],
    [
      "am",
      "e "
    ],
    [
      "f",
      "e"
    ],
    [
      "it",
      "t"
    ],
    [
      " ha",
      "ve "
    ],
    [
      "w",
      "or"
    ],
    [
      "for",
      " "
    ],
    [
      " ha",
      "d "
    ],
    [
      "om",
      "e "
    ],
    [
      "d",
      "\n"
    ],
    [
      "T",
      "he "
    ],
    [
      "ou",
      "s"
    ],
    [
      "p",
      "os"
    ],
    [
      "es",
      ", "
    ],
    [
      "t",
      "en"
    ],
    [
      "h",
      "e"
    ],
    [
      "is",
      "h"
    ],
    [
      "t",
      "ur"
    ],
    [
      "k",
      "e "
    ],
    [
      "k",
      "ed "
    ],
    [
      "of",
      "\n"
    ],
    [
      "m",
      "or"
    ],
    [
      "m",
      "e"
    ],
    [
      "an",
      "g"
    ],
    [
      "’",
      "t "
    ],
    [
      "on",
      " the "
    ],
    [
      " h",
      "er "
    ],
    [
      "T",
      "h"
    ],
    [
      "to",
      "o"
    ],
    [
      "    ",
      "  "
    ],
    [
      "th",
      "ey "
    ],
    [
      "us",
      "t "
    ],
    [
      " ",
      "in"
    ],
    [
      "ar",
      "d"
    ],
    [
      "g",
      "re"
    ],
    [
      "a",
      "d "
    ],
    [
      " a",
      "s "
    ],
    [
      "th",
      "er "
    ],
    [
      "es",
      "s"
    ],
    [
      "o",
      "ther"
    ],
    [
      "to",
      "\n"
    ],
    [
      "ak",
      "e "
    ],
    [
      "ed",
      "\n"
    ],
    [
      "s",
      "t "
    ],
    [
      " a",
      "t "
    ],
    [
      "b",
      "l"
    ],
    [
      "e",
      "y"
    ],
    [
      "a",
      "u"
    ],
    [
      "b",
      "r"
    ],
    [
      "al",
      " "
    ],
    [
      "s",
      "u"
    ],
    [
      "ed ",
      "the "
    ],
    [
      "c",
      "k"
    ],
    [
      "t",
      "er "
    ],
    [
      " th",
      "is "
    ],
    [
      "a",
      "f"
    ],
    [
      "l",
      "y"
    ],
    [
      "with",
      " "
    ],
    [
      "; ",
      "and "
    ],
    [
      "i",
      "ll "
    ],
    [
      "-",
      "-"
    ],
    [
      "ou",
      "s "
    ],
    [
      "o",
      "ver"
    ],
    [
      "w",
      "ould "
    ],
    [
      "h",
      "er "
    ],
    [
      "is",
      "\n"
    ],
    [
      " s",
      "h"
    ],
    [
      "W",
      "h"
    ],
    [
      "e",
      "ver"
    ],
    [
      "wh",
      "o"
    ],
    [
      "!",
      " "
    ],
    [
      "igh",
      "t "
    ],
    [
      "tur",
      "n"
    ],
    [
      "d",
      "r"
    ],
    [
      "a",
      "ch"
    ],
    [
      "th",
      "e\n"
    ],
    [
      "B",
      "ut "
    ],
    [
      "p",
      "res"
    ],
    [
      ". ",
      "“"
    ],
    [
      "th",
      "ing"
    ],
    [
      "c",
      "l"
    ],
    [
      "to",
      "r"
    ],
    [
      "en",
      "d"
    ],
    [
      "es",
      "t "
    ],
    [
      "p",
      "p"
    ],
    [
      " ",
      "of"
    ],
    [
      " th",
      "em"
    ],
    [
      " ",
      "to "
    ],
    [
      "l",
      "itt"
    ],
    [
      "in",
      "d"
    ],
    [
      ". ",
      "S"
    ],
    [
      "f",
      "a"
    ],
    [
      "an",
      "y "
    ],
    [
      "f",
      "i"
    ],
    [
      "g",
      "i"
    ],
    [
      "t",
      "s "
    ],
    [
      " s",
      "he "
    ],
    [
      ". T",
      "he "
    ],
    [
      "oun",
      "d "
    ],
    [
      "re",
      "m"
    ],
    [
      "f",
      "ac"
    ],
    [
      " wh",
      "ich"
    ],
    [
      "b",
      "y"
    ],
    [
      "ou",
      "l"
    ],
    [
      "as",
      "t "
    ],
    [
      "f",
      "ul"
    ],
    [
      "t",
      "ain"
    ],
    [
      "th",
      "em"
    ],
    [
      " a",
      "m"
    ],
    [
      "an",
      "t "
    ],
    [
      "os",
      "e "
    ],
    [
      "u",
      "s "
    ],
    [
      "li",
      "ke "
    ],
    [
      "p",
      "re"
    ],
    [
      "s",
      "ha"
    ],
    [
      "s",
      "e "
    ],
    [
      " th",
      "eir"
    ],
    [
      "?",
      " "
    ],
    [
      "to",
      " m"
    ],
    [
      "c",
      "i"
    ],
    [
      "th",
      "is "
    ],
    [
      ". ",
      "A"
    ],
    [
      "of",
      "f"
    ],
    [
      "om",
      "e"
    ],
    [
      ".",
      "”\n\n"
    ],
    [
      "f",
      "ir"
    ],
    [
      "ed ",
      "to "
    ],
    [
      "os",
      "t "
    ],
    [
      "d",
      "own"
    ],
    [
      "ing",
      "\n"
    ],
    [
      "t",
      "e"
    ],
    [
      "be",
      "for"
    ],
    [
      ". T",
      "h"
    ],
    [
      "in",
      "d "
    ],
    [
      " a",
      "ll"
    ],
    [
      "st",
      "r"
    ],
    [
      "as",
      "s"
    ],
    [
      "no",
      " "
    ],
    [
      " ",
      "of "
    ],
    [
      "o",
      "ld "
    ],
    [
      "at",
      "e "
    ],
    [
      "ing",
      ", "
    ],
    [
      "g",
      "oo"
    ],
    [
      ". H",
      "e "
    ],
    [
      "d",
      "es"
    ],
    [
      "o",
      "v"
    ],
    [
      "Y",
      "ou"
    ],
    [
      "ar",
      "m"
    ],
    [
      "w",
      "ay"
    ],
    [
      "g",
      "l"
    ],
    [
      "ough",
      "t "
    ],
    [
      ",”",
      " said "
    ],
    [
      "u",
      "d"
    ],
    [
      "di",
      "d "
    ],
    [
      "w",
      "e "
    ],
    [
      "litt",
      "le "
    ],
    [
      "ab",
      "le "
    ],
    [
      "your",
      " "
    ],
    [
      "ow",
      " "
    ],
    [
      "l",
      "ong"
    ],
    [
      "ad",
      "e "
    ],
    [
      "a",
      "th"
    ],
    [
      "Mr",
      ". "
    ],
    [
      "the ",
      "s"
    ],
    [
      "be",
      "en"
    ],
    [
      "w",
      "hat "
    ],
    [
      "an",
      "c"
    ],
    [
      "p",
      "ec"
    ],
    [
      "it",
      "e "
    ],
    [
      "d",
      "ay"
    ],
    [
      "d",
      "on"
    ],
    [
      "o",
      "b"
    ],
    [
      "h",
      "ear"
    ],
    [
      "wh",
      "en"
    ],
    [
      "s",
      "o "
    ],
    [
      "s",
      ". "
    ],
    [
      "an",
      "t"
    ],
    [
      "e",
      ", and "
    ],
    [
      "ac",
      "k"
    ],
    [
      "ti",
      "m"
    ],
    [
      "th",
      "ing "
    ],
    [
      "a",
      "ll "
    ],
    [
      "a",
      " s"
    ],
    [
      "th",
      "ere "
    ],
    [
      "    ",
      " "
    ],
    [
      "p",
      "le"
    ],
    [
      ":0",
      "0"
    ],
    [
      "c",
      "ould "
    ],
    [
      "as",
      "\n"
    ],
    [
      "er",
      "v"
    ],
    [
      "u",
      "re"
    ],
    [
      "our",
      " "
    ],
    [
      "ur",
      "e "
    ],
    [
      "ti",
      "c"
    ],
    [
      "gh",
      "t "
    ],
    [
      "s ",
      "and "
    ],
    [
      "s",
      ", and "
    ],
    [
      "in",
      "k"
    ],
    [
      "el",
      "y "
    ],
    [
      "f",
      "l"
    ],
    [
      "a",
      "ve "
    ],
    [
      "at",
      "\n"
    ],
    [
      "?",
      "”\n\n“"
    ],
    [
      "be",
      "en "
    ],
    [
      "’",
      "\n\n"
    ],
    [
      "en",
      "ce "
    ],
    [
      "un",
      "der"
    ],
    [
      "i",
      "g"
    ],
    [
      "f",
      "ri"
    ],
    [
      "I",
      " w"
    ],
    [
      "c",
      "ar"
    ],
    [
      "e",
      "f"
    ],
    [
      "s",
      "w"
    ],
    [
      "ag",
      "ain"
    ],
    [
      "b",
      "er"
    ],
    [
      ";",
      "\n"
    ],
    [
      "ing",
      " the "
    ],
    [
      " s",
      "e"
    ],
    [
      "c",
      "o"
    ],
    [
      "on",
      "ly "
    ],
    [
      "i",
      "on"
    ],
    [
      "it",
      "s "
    ],
    [
      "d",
      "o "
    ],
    [
      "ne",
      "w"
    ],
    [
      " th",
      "ey "
    ],
    [
      "s",
      "id"
    ],
    [
      "to ",
      "be "
    ],
    [
      "loo",
      "k"
    ],
    [
      "a",
      "us"
    ],
    [
      "e",
      ". "
    ],
    [
      "an",
      "ce "
    ],
    [
      ",",
      "’"
    ],
    [
      "ic",
      "k"
    ],
    [
      "pl",
      "ac"
    ],
    [
      "n",
      " "
    ],
    [
      "t",
      "y "
    ],
    [
      "ti",
      "me "
    ],
    [
      "befor",
      "e "
    ],
    [
      "H",
      "e "
    ],
    [
      ", ",
      "s"
    ],
    [
      "N",
      "o"
    ],
    [
      "a",
      "\n"
    ],
    [
      " a",
      " s"
    ],
    [
      "es",
      "e "
    ],
    [
      "b",
      "le "
    ],
    [
      "it",
      "y "
    ],
    [
      "be",
      "g"
    ],
    [
      "th",
      " "
    ],
    [
      "re",
      "ad"
    ],
    [
      " c",
      "on"
    ],
    [
      "c",
      "r"
    ],
    [
      "from",
      " "
    ],
    [
      "u",
      "c"
    ],
    [
      "!",
      "”"
    ],
    [
      "or",
      "d"
    ],
    [
      ":",
      " "
    ],
    [
      ":0",
      "1"
    ],
    [
      "ar",
      "d "
    ],
    [
      "en",
      ", "
    ],
    [
      "ro",
      "om"
    ],
    [
      "s ",
      "of "
    ],
    [
      "in",
      "e "
    ],
    [
      "th",
      "ough"
    ],
    [
      "o",
      "ther "
    ],
    [
      "com",
      "e "
    ],
    [
      "r",
      "a"
    ],
    [
      " m",
      "e"
    ],
    [
      "g",
      "e"
    ],
    [
      "all",
      "y "
    ],
    [
      "for",
      " the "
    ],
    [
      "I",
      " s"
    ],
    [
      "s",
      "ai"
    ],
    [
      "mor",
      "e "
    ],
    [
      "w",
      "e"
    ],
    [
      "es",
      "t"
    ],
    [
      "up",
      "on"
    ],
    [
      "it ",
      "was "
    ],
    [
      " ",
      "to"
    ],
    [
      " m",
      "or"
    ],
    [
      "in",
      "\n"
    ],
    [
      "as",
      "t"
    ],
    [
      " ",
      "re"
    ],
    [
      "c",
      "oun"
    ],
    [
      "from",
      " the "
    ],
    [
      "if",
      " "
    ],
    [
      "goo",
      "d "
    ],
    [
      "th",
      "eir"
    ],
    [
      "g",
      "e "
    ],
    [
      "of",
      " his "
    ],
    [
      "er",
      ", "
    ],
    [
      "v",
      "i"
    ],
    [
      "k",
      "e"
    ],
    [
      "h",
      "and"
    ],
    [
      "by",
      " the "
    ],
    [
      "gre",
      "at "
    ],
    [
      "t",
      "ri"
    ],
    [
      "en",
      "d "
    ],
    [
      "b",
      "re"
    ],
    [
      "m",
      "ost "
    ],
    [
      "s",
      "ti"
    ],
    [
      " s",
      "o"
    ],
    [
      "t",
      "ak"
    ],
    [
      " m",
      "e "
    ],
    [
      "oun",
      "d"
    ],
    [
      "I",
      " c"
    ],
    [
      " m",
      "an"
    ],
    [
      "r",
      "ough"
    ],
    [
      "p",
      "or"
    ],
    [
      "u",
      "ll"
    ],
    [
      "ha",
      "s "
    ],
    [
      "I",
      " am"
    ],
    [
      "v",
      "o"
    ],
    [
      "?",
      "”"
    ],
    [
      " w",
      "hat "
    ],
    [
      "ing",
      " a"
    ],
    [
      "f",
      "er"
    ],
    [
      "le",
      ", "
    ],
    [
      "m",
      "ade "
    ],
    [
      "g",
      "ain"
    ],
    [
      "b",
      "ro"
    ],
    [
      "in",
      "c"
    ],
    [
      "t",
      "re"
    ],
    [
      "igh",
      "t"
    ],
    [
      "a",
      "ti"
    ],
    [
      ". I",
      "t "
    ],
    [
      "of",
      " s"
    ],
    [
      "; ",
      "but "
    ],
    [
      "W",
      "hat "
    ],
    [
      "c",
      "ame "
    ],
    [
      "ed ",
      "in"
    ],
    [
      "s",
      "on"
    ],
    [
      "ed ",
      "him"
    ],
    [
      "n",
      "g"
    ],
    [
      "i",
      "le "
    ],
    [
      "w",
      "ill "
    ],
    [
      "b",
      "el"
    ],
    [
      "a",
      "ir"
    ],
    [
      " a",
      "s"
    ],
    [
      "you",
      "ng"
    ],
    [
      "ab",
      "out "
    ],
    [
      "ag",
      "e "
    ],
    [
      "it",
      ", "
    ],
    [
      "en",
      "c"
    ],
    [
      "ed ",
      "to"
    ],
    [
      "b",
      "u"
    ],
    [
      "for",
      "m"
    ],
    [
      "s",
      "ome "
    ],
    [
      "ou",
      "t"
    ],
    [
      "at ",
      "the "
    ],
    [
      "M",
      "ar"
    ],
    [
      "uch",
      " "
    ],
    [
      "t",
      "ake "
    ],
    [
      "o",
      "ll"
    ],
    [
      "which",
      " "
    ],
    [
      "fir",
      "st "
    ],
    [
      "af",
      "ter"
    ],
    [
      "h",
      "ow"
    ],
    [
      "m",
      "o"
    ],
    [
      ",\n",
      "and "
    ],
    [
      "er",
      "s "
    ],
    [
      "M",
      "is"
    ],
    [
      "g",
      "u"
    ],
    [
      " a",
      "\n"
    ],
    [
      ", ",
      "but "
    ],
    [
      "ev",
      "en"
    ],
    [
      "i",
      "p"
    ],
    [
      "ar",
      "k"
    ],
    [
      "an",
      "y"
    ],
    [
      "v",
      "er "
    ],
    [
      "c",
      "c"
    ],
    [
      "e",
      ".\n\n"
    ],
    [
      "au",
      "gh"
    ],
    [
      " their",
      " "
    ],
    [
      "G",
      "o"
    ],
    [
      "in",
      "ter"
    ],
    [
      " ",
      "And "
    ],
    [
      "m",
      "on"
    ],
    [
      "re",
      "c"
    ],
    [
      ", ",
      "the "
    ],
    [
      "g",
      "ent"
    ],
    [
      "s",
      "aid "
    ],
    [
      "p",
      "li"
    ],
    [
      "tr",
      "u"
    ],
    [
      "e",
      "w"
    ],
    [
      "f",
      "ec"
    ],
    [
      "se",
      "em"
    ],
    [
      "pe",
      "op"
    ],
    [
      " with",
      " "
    ],
    [
      "n",
      "ess "
    ],
    [
      "at",
      "ed "
    ],
    [
      "he ",
      "had "
    ],
    [
      "to",
      "w"
    ],
    [
      " h",
      "ear"
    ],
    [
      "I",
      "’"
    ],
    [
      "c",
      "aus"
    ],
    [
      "d",
      "en"
    ],
    [
      "t",
      "al"
    ],
    [
      "ac",
      "k "
    ],
    [
      "I",
      " have "
    ],
    [
      "e",
      "e "
    ],
    [
      " h",
      "e"
    ],
    [
      "he ",
      "was "
    ],
    [
      "th",
      "en"
    ],
    [
      "with",
      " the "
    ],
    [
      "’\n\n",
      "‘"
    ],
    [
      "E",
      "R"
    ],
    [
      "gh",
      "t"
    ],
    [
      "li",
      "f"
    ],
    [
      "j",
      "o"
    ],
    [
      "wh",
      "en "
    ],
    [
      "is",
      "t"
    ],
    [
      "s",
      "p"
    ],
    [
      "le",
      "f"
    ],
    [
      "p",
      "ass"
    ],
    [
      ", ",
      "as "
    ],
    [
      "ple",
      "as"
    ],
    [
      "le",
      "t "
    ],
    [
      "e",
      "very "
    ],
    [
      "ai",
      "l"
    ],
    [
      "e ",
      "and "
    ],
    [
      "i",
      "v"
    ],
    [
      "t",
      "t"
    ],
    [
      "w",
      "ell"
    ],
    [
      "\n",
      "the "
    ],
    [
      "v",
      "en"
    ],
    [
      "you",
      " w"
    ],
    [
      "ap",
      "p"
    ],
    [
      "d",
      "ay "
    ],
    [
      "A",
      "r"
    ],
    [
      "a",
      " m"
    ],
    [
      "loo",
      "ked "
    ],
    [
      " w",
      "e "
    ],
    [
      "s",
      "ome"
    ],
    [
      "n",
      "’t "
    ],
    [
      "c",
      "ha"
    ],
    [
      "I",
      "\n"
    ],
    [
      "self",
      " "
    ],
    [
      " c",
      "om"
    ],
    [
      "ar",
      "ri"
    ],
    [
      "t",
      "ter"
    ],
    [
      "wh",
      "ere "
    ],
    [
      "ing",
      " s"
    ],
    [
      "si",
      "on"
    ],
    [
      "an",
      "sw"
    ],
    [
      "w",
      "ay "
    ],
    [
      "d",
      "re"
    ],
    [
      "ar",
      "r"
    ],
    [
      "d",
      "ear"
    ],
    [
      "e",
      ",\n"
    ],
    [
      "pe",
      "ak"
    ],
    [
      "s",
      "erv"
    ],
    [
      "g",
      "o "
    ],
    [
      "s ",
      "of"
    ],
    [
      "l",
      "ad"
    ],
    [
      "ic",
      "e "
    ],
    [
      ".\n\n",
      "‘"
    ],
    [
      "ha",
      "t"
    ],
    [
      ".",
      "."
    ],
    [
      " a",
      "b"
    ],
    [
      "a",
      ", "
    ],
    [
      "I",
      "t "
    ],
    [
      " s",
      "ha"
    ],
    [
      "s",
      "m"
    ],
    [
      ":0",
      "2"
    ],
    [
      ". ",
      "But "
    ],
    [
      "en",
      "g"
    ],
    [
      "b",
      "le"
    ],
    [
      "don",
      "’t "
    ],
    [
      "p",
      "h"
    ],
    [
      "or",
      "n"
    ],
    [
      "lo",
      "v"
    ],
    [
      "ed ",
      "and "
    ],
    [
      "d",
      "el"
    ],
    [
      "c",
      "our"
    ],
    [
      "p",
      "ut "
    ],
    [
      "at",
      "ch"
    ],
    [
      "fe",
      "el"
    ],
    [
      "him",
      " "
    ],
    [
      "and",
      ", "
    ],
    [
      "gi",
      "ve "
    ],
    [
      "Mis",
      "s "
    ],
    [
      "j",
      "ust "
    ],
    [
      "it",
      "y"
    ],
    [
      "y",
      "ear"
    ],
    [
      "ed ",
      "his "
    ],
    [
      "re",
      "e "
    ],
    [
      "u",
      "b"
    ],
    [
      "in",
      " his "
    ],
    [
      "bo",
      "d"
    ],
    [
      "w",
      "ent "
    ],
    [
      ". ",
      " "
    ],
    [
      "c",
      "er"
    ],
    [
      "p",
      "ri"
    ],
    [
      " h",
      "is\n"
    ],
    [
      "t",
      "ell"
    ],
    [
      "e",
      "’s "
    ],
    [
      "’",
      " "
    ],
    [
      "h",
      "ous"
    ],
    [
      "sh",
      "ould "
    ],
    [
      "g",
      "et "
    ],
    [
      " s",
      "t"
    ],
    [
      "b",
      "ack"
    ],
    [
      "f",
      " "
    ],
    [
      "d",
      "e "
    ],
    [
      "an",
      "\n"
    ],
    [
      "ch",
      "il"
    ],
    [
      "l",
      "y, "
    ],
    [
      "tw",
      "o "
    ],
    [
      "d",
      "ec"
    ],
    [
      "do",
      "or"
    ],
    [
      ", ",
      "that "
    ],
    [
      "it ",
      "is "
    ],
    [
      "with",
      "out "
    ],
    [
      "j",
      "ec"
    ],
    [
      "us",
      "h"
    ],
    [
      ", and ",
      "the "
    ],
    [
      "l",
      "ess "
    ],
    [
      "F",
      "r"
    ],
    [
      "as",
      "h"
    ],
    [
      "is",
      "e "
    ],
    [
      "ar",
      " "
    ],
    [
      "C",
      "h"
    ],
    [
      "m",
      "is"
    ],
    [
      "own",
      " "
    ],
    [
      "m",
      "ight "
    ],
    [
      "O",
      "n"
    ],
    [
      "w",
      "as\n"
    ],
    [
      "i",
      "ous "
    ],
    [
      "a",
      " c"
    ],
    [
      "ol",
      "d"
    ],
    [
      "?",
      "\n\n"
    ],
    [
      "tw",
      "o"
    ],
    [
      "O",
      "R"
    ],
    [
      "m",
      "en"
    ],
    [
      " mor",
      "e "
    ],
    [
      " a",
      "gain"
    ],
    [
      " w",
      "or"
    ],
    [
      " a",
      "l"
    ],
    [
      "W",
      "e "
    ],
    [
      "m",
      "in"
    ],
    [
      "ha",
      "v"
    ],
    [
      "ing ",
      "to "
    ],
    [
      "po",
      "in"
    ],
    [
      "fri",
      "end"
    ],
    [
      "s ",
      "the "
    ],
    [
      "m",
      "ust "
    ],
    [
      "u",
      "st"
    ],
    [
      "li",
      "v"
    ],
    [
      "for",
      "t"
    ],
    [
      "s",
      "ay"
    ],
    [
      "ha",
      "pp"
    ],
    [
      "w",
      "ill"
    ],
    [
      "ne",
      "ver"
    ],
    [
      ", ",
      "“"
    ],
    [
      "c",
      "ap"
    ],
    [
      "ne",
      "ver "
    ],
    [
      "lef",
      "t "
    ],
    [
      "of",
      " th"
    ],
    [
      "c",
      "an"
    ],
    [
      " a",
      " m"
    ],
    [
      "b",
      "ur"
    ],
    [
      "W",
      "ell"
    ],
    [
      "l",
      "ast "
    ],
    [
      "g",
      "n"
    ],
    [
      "go",
      "t "
    ],
    [
      "e",
      "as"
    ],
    [
      "fa",
      "ther"
    ],
    [
      "v",
      "is"
    ],
    [
      "m",
      "ent"
    ],
    [
      "in",
      "k "
    ],
    [
      "tion",
      " "
    ],
    [
      "did ",
      "not "
    ],
    [
      "th",
      "at"
    ],
    [
      "ed",
      ", and "
    ],
    [
      "m",
      "er"
    ],
    [
      "M",
      "y "
    ],
    [
      "’",
      "d "
    ],
    [
      "ey",
      "es "
    ],
    [
      ". ",
      "I "
    ],
    [
      "ing",
      " his "
    ],
    [
      "c",
      "re"
    ],
    [
      "e ",
      "of "
    ],
    [
      "es",
      "\n"
    ],
    [
      "t",
      "in"
    ],
    [
      "s",
      ".\n\n"
    ],
    [
      "ar",
      "y "
    ],
    [
      " sh",
      "ould "
    ],
    [
      "way",
      "s "
    ],
    [
      "an",
      "k"
    ],
    [
      "h",
      "e\n"
    ],
    [
      "up",
      " "
    ],
    [
      "op",
      "en"
    ],
    [
      "h",
      "el"
    ],
    [
      "f",
      "ound "
    ],
    [
      "g",
      "en"
    ],
    [
      "n",
      "ear"
    ],
    [
      "I",
      " was "
    ],
    [
      "ed ",
      "by "
    ],
    [
      "th",
      "ou"
    ],
    [
      "l",
      "ar"
    ],
    [
      "it",
      "\n"
    ],
    [
      "sha",
      "ll "
    ],
    [
      "caus",
      "e "
    ],
    [
      "ha",
      "p"
    ],
    [
      "en",
      "ce"
    ],
    [
      "l",
      "y\n"
    ],
    [
      "wh",
      "o "
    ],
    [
      "f",
      "el"
    ],
    [
      "Mr",
      "s. "
    ],
    [
      "answ",
      "er"
    ],
    [
      "t",
      "u"
    ],
    [
      "f",
      "in"
    ],
    [
      "at",
      "ter"
    ],
    [
      "h",
      ", "
    ],
    [
      "ab",
      "le"
    ],
    [
      "gent",
      "le"
    ],
    [
      "a",
      "z"
    ],
    [
      "f",
      "oll"
    ],
    [
      "r",
      "ow"
    ],
    [
      "re",
      "turn"
    ],
    [
      "f",
      "ic"
    ],
    [
      "in",
      " a "
    ],
    [
      "t",
      "on"
    ],
    [
      "w",
      "r"
    ],
    [
      "m",
      "y"
    ],
    [
      " him",
      " "
    ],
    [
      "bel",
      "i"
    ],
    [
      "ing",
      "s "
    ],
    [
      "oo",
      "k"
    ],
    [
      "f",
      "oo"
    ],
    [
      "p",
      "ur"
    ],
    [
      "em",
      "p"
    ],
    [
      "m",
      "an "
    ],
    [
      "c",
      "ri"
    ],
    [
      "c",
      "all"
    ],
    [
      "in",
      "n"
    ],
    [
      "in",
      "to"
    ],
    [
      "e",
      "e"
    ],
    [
      "m",
      "ay "
    ],
    [
      "ro",
      "s"
    ],
    [
      "s",
      ",\n"
    ],
    [
      "qu",
      "ite "
    ],
    [
      "you",
      ", "
    ],
    [
      "ed ",
      "with"
    ],
    [
      " s",
      "ome "
    ],
    [
      "in",
      "ce "
    ],
    [
      "d",
      "res"
    ],
    [
      " w",
      "ere "
    ],
    [
      " a",
      "d"
    ],
    [
      " a",
      " c"
    ],
    [
      "com",
      "p"
    ],
    [
      " a",
      "c"
    ],
    [
      "ful",
      " "
    ],
    [
      "t ",
      "of "
    ],
    [
      "their",
      " "
    ],
    [
      "of",
      " m"
    ],
    [
      "k",
      "new"
    ],
    [
      "i",
      "d "
    ],
    [
      "at",
      "er"
    ],
    [
      ". S",
      "he "
    ],
    [
      " the ",
      "s"
    ],
    [
      "no",
      "t"
    ],
    [
      "app",
      "ear"
    ],
    [
      "om",
      "an"
    ],
    [
      "of",
      " the\n"
    ],
    [
      "Mr",
      " "
    ],
    [
      "ch",
      "ar"
    ],
    [
      "f",
      "am"
    ],
    [
      "b",
      "ri"
    ],
    [
      "n",
      "at"
    ],
    [
      " th",
      "ere "
    ],
    [
      "\n\n",
      "“"
    ],
    [
      "wor",
      "d"
    ],
    [
      ",’",
      " said "
    ],
    [
      "ation",
      " "
    ],
    [
      "p",
      "i"
    ],
    [
      "k",
      "ing"
    ],
    [
      "of",
      " a "
    ],
    [
      "\n",
      "      "
    ],
    [
      "o",
      "cc"
    ],
    [
      "d",
      "ou"
    ],
    [
      "es",
      ", and "
    ],
    [
      "th",
      "rough"
    ],
    [
      "H",
      "A"
    ],
    [
      "b",
      "ack "
    ],
    [
      "g",
      "g"
    ],
    [
      "y",
      "et "
    ],
    [
      "com",
      "m"
    ],
    [
      "ke",
      "ep"
    ],
    [
      "n",
      "ec"
    ],
    [
      " w",
      "ould "
    ],
    [
      "You",
      " "
    ],
    [
      "dis",
      "t"
    ],
    [
      ", ",
      "he "
    ],
    [
      " a",
      "f"
    ],
    [
      "oul",
      "d"
    ],
    [
      "I",
      "n"
    ],
    [
      ".",
      "”"
    ],
    [
      "r",
      "is"
    ],
    [
      "ever",
      "y"
    ],
    [
      "s ",
      "of the "
    ],
    [
      "be",
      "ing "
    ],
    [
      "t",
      "ing "
    ],
    [
      "c",
      "ur"
    ],
    [
      "sai",
      "d, "
    ],
    [
      "qu",
      "i"
    ],
    [
      "l",
      "ow"
    ],
    [
      "in",
      "to the "
    ],
    [
      "be",
      "tw"
    ],
    [
      "ed ",
      "that "
    ],
    [
      "ig",
      "n"
    ],
    [
      "th",
      "an"
    ],
    [
      "u",
      "e "
    ],
    [
      "on",
      "e"
    ],
    [
      "peop",
      "le "
    ],
    [
      "E",
      "n"
    ],
    [
      "he",
      "ad"
    ],
    [
      ".\n\n",
      "The "
    ],
    [
      "en",
      "ough"
    ],
    [
      "I",
      " m"
    ],
    [
      "ev",
      "er "
    ],
    [
      "J",
      "o"
    ],
    [
      "id",
      "e "
    ],
    [
      "i",
      "z"
    ],
    [
      " ",
      "S"
    ],
    [
      "d",
      "id"
    ],
    [
      "n",
      "ight"
    ],
    [
      "on",
      "ce "
    ],
    [
      "d",
      "if"
    ],
    [
      "im",
      "p"
    ],
    [
      "to",
      "ld "
    ],
    [
      "foll",
      "ow"
    ],
    [
      "es",
      "s, "
    ],
    [
      "pos",
      "si"
    ],
    [
      "betw",
      "e"
    ],
    [
      "i",
      "ly "
    ],
    [
      "h",
      "o"
    ],
    [
      "f",
      "ull"
    ],
    [
      "h",
      "or"
    ],
    [
      "le",
      "ar"
    ],
    [
      " wh",
      "o"
    ],
    [
      "fac",
      "e "
    ],
    [
      "to",
      " him"
    ],
    [
      "be",
      "cause "
    ],
    [
      ". ",
      "And "
    ],
    [
      "e",
      "for"
    ],
    [
      "r",
      "e "
    ],
    [
      "b",
      "e\n"
    ],
    [
      "ti",
      "ll"
    ],
    [
      "on",
      "d "
    ],
    [
      "re",
      "as"
    ],
    [
      "in",
      "st"
    ],
    [
      "too",
      "d "
    ],
    [
      "f",
      "ar"
    ],
    [
      "qu",
      "es"
    ],
    [
      "ce",
      "p"
    ],
    [
      "fel",
      "t "
    ],
    [
      "wh",
      "ile "
    ],
    [
      "ch",
      "i"
    ],
    [
      "too",
      "k"
    ],
    [
      " he ",
      "had "
    ],
    [
      "t",
      "ly "
    ],
    [
      "ti",
      "l"
    ],
    [
      ".\n\n",
      "A"
    ],
    [
      "F",
      "or"
    ],
    [
      "f",
      "ell"
    ],
    [
      "s",
      "ed "
    ],
    [
      " th",
      "ink"
    ],
    [
      "no",
      "t\n"
    ],
    [
      "th",
      "an "
    ],
    [
      "ev",
      "en "
    ],
    [
      "pl",
      "ain"
    ],
    [
      "t",
      "y"
    ],
    [
      "ha",
      "l"
    ],
    [
      "no",
      "thing "
    ],
    [
      "an",
      "ce"
    ],
    [
      ",”",
      " "
    ],
    [
      "’",
      "s\n"
    ],
    [
      "T",
      "hat "
    ],
    [
      " th",
      "ese "
    ],
    [
      " at ",
      "the "
    ],
    [
      "and ",
      "the "
    ],
    [
      "s",
      "ur"
    ],
    [
      "s",
      "to"
    ],
    [
      "in",
      " s"
    ],
    [
      " h",
      "and"
    ],
    [
      "I",
      " had "
    ],
    [
      "at",
      "t"
    ],
    [
      "ir",
      "l"
    ],
    [
      "ou",
      "se"
    ],
    [
      "w",
      "ard"
    ],
    [
      "ir",
      " "
    ],
    [
      "th",
      "at\n"
    ],
    [
      ", ",
      "and\n"
    ],
    [
      "en",
      "ter"
    ],
    [
      "e",
      "ach"
    ],
    [
      "mor",
      "n"
    ],
    [
      "'",
      "s "
    ],
    [
      "be",
      "h"
    ],
    [
      "m",
      "om"
    ],
    [
      "li",
      "c"
    ],
    [
      "f",
      "ear"
    ],
    [
      "con",
      "s"
    ],
    [
      "pr",
      "is"
    ],
    [
      "now",
      " "
    ],
    [
      "th",
      "y "
    ],
    [
      "f",
      "ur"
    ],
    [
      "ti",
      "me"
    ],
    [
      "s",
      "po"
    ],
    [
      "OR",
      "D"
    ],
    [
      "li",
      "ght "
    ],
    [
      "p",
      "as"
    ],
    [
      "gi",
      "v"
    ],
    [
      "re",
      "l"
    ],
    [
      " ab",
      "out "
    ],
    [
      "s",
      "uch"
    ],
    [
      "with",
      " a "
    ],
    [
      ".",
      "’\n\n‘"
    ],
    [
      "st",
      "re"
    ],
    [
      "ha",
      "d\n"
    ],
    [
      "fe",
      "w"
    ],
    [
      "t",
      "e "
    ],
    [
      "i",
      "le"
    ],
    [
      "sh",
      "ip"
    ],
    [
      "id",
      "e"
    ],
    [
      "ex",
      "c"
    ],
    [
      ". ",
      "B"
    ],
    [
      "g",
      "ave "
    ],
    [
      "for",
      "\n"
    ],
    [
      " ha",
      "v"
    ],
    [
      " a",
      "ll "
    ],
    [
      "ent",
      "ly "
    ],
    [
      "m",
      "uch"
    ],
    [
      "ri",
      "ed "
    ],
    [
      "of",
      " my "
    ],
    [
      "l",
      "augh"
    ],
    [
      "s",
      "aw"
    ],
    [
      "m",
      "ent "
    ],
    [
      "is",
      ", "
    ],
    [
      "sel",
      "v"
    ],
    [
      "r",
      "ound "
    ],
    [
      "up",
      "on the "
    ],
    [
      "h",
      "and "
    ],
    [
      "l",
      "ed "
    ],
    [
      "r",
      "y "
    ],
    [
      "he",
      "ad "
    ],
    [
      "s",
      "k"
    ],
    [
      "turn",
      "ed "
    ],
    [
      "a",
      " w"
    ],
    [
      " which",
      " "
    ],
    [
      "dr",
      "aw"
    ],
    [
      "E",
      "N"
    ],
    [
      "th",
      "e"
    ],
    [
      "k",
      "ing "
    ],
    [
      "on",
      ", "
    ],
    [
      "oul",
      "d\n"
    ],
    [
      "n",
      "ess"
    ],
    [
      "t",
      "ing"
    ],
    [
      "ch",
      "ang"
    ],
    [
      "y",
      ", and "
    ],
    [
      "c",
      "lo"
    ],
    [
      "al",
      "ways "
    ],
    [
      "to s",
      "ee "
    ],
    [
      "you",
      "\n"
    ],
    [
      "i",
      "x"
    ],
    [
      "to",
      " his "
    ],
    [
      "an",
      "other"
    ],
    [
      "f",
      "ind "
    ],
    [
      "L",
      "ORD"
    ],
    [
      "se",
      "e "
    ],
    [
      ",”",
      " he "
    ],
    [
      "as",
      "ter"
    ],
    [
      "s",
      "or"
    ],
    [
      "dou",
      "b"
    ],
    [
      "s",
      "up"
    ],
    [
      "b",
      "us"
    ],
    [
      "per",
      "son"
    ],
    [
      "ne",
      "x"
    ],
    [
      "T",
      "ER"
    ],
    [
      "no",
      "thing"
    ],
    [
      "bod",
      "y "
    ],
    [
      "a",
      "it"
    ],
    [
      "it",
      "ch"
    ],
    [
      "ay",
      ", "
    ],
    [
      "th",
      "en "
    ],
    [
      "er",
      "e\n"
    ],
    [
      "ten",
      "d"
    ],
    [
      "lo",
      "ve "
    ],
    [
      ". ",
      "‘"
    ],
    [
      "t",
      "ro"
    ],
    [
      "es ",
      "and "
    ],
    [
      "n",
      "am"
    ],
    [
      "g",
      "irl"
    ],
    [
      "; ",
      "“"
    ],
    [
      "c",
      "as"
    ],
    [
      "plac",
      "e "
    ],
    [
      "T",
      "his "
    ],
    [
      "read",
      "y "
    ],
    [
      "b",
      "es"
    ],
    [
      "S",
      "he "
    ],
    [
      "m",
      " "
    ],
    [
      "gen",
      "er"
    ],
    [
      "s",
      "ec"
    ],
    [
      "p",
      "ow"
    ],
    [
      "a",
      "ther"
    ],
    [
      "n",
      "ight "
    ],
    [
      "w",
      "as"
    ],
    [
      "C",
      "HA"
    ],
    [
      "W",
      "ith"
    ],
    [
      "s ",
      "were "
    ],
    [
      "down",
      " "
    ],
    [
      "por",
      "t"
    ],
    [
      "him",
      "self"
    ],
    [
      " th",
      "at"
    ],
    [
      "I am",
      " "
    ],
    [
      "ce",
      "iv"
    ],
    [
      "sai",
      "d"
    ],
    [
      "st",
      "and"
    ],
    [
      "rem",
      "ain"
    ],
    [
      "w",
      "ind"
    ],
    [
      "si",
      "on "
    ],
    [
      "to",
      "ge"
    ],
    [
      "p",
      " "
    ],
    [
      " c",
      "ould "
    ],
    [
      "ent",
      ", "
    ],
    [
      "a",
      "h"
    ],
    [
      "u",
      "f"
    ],
    [
      ":",
      "\n"
    ],
    [
      "br",
      "ought "
    ],
    [
      "d",
      "one "
    ],
    [
      "er",
      "e"
    ],
    [
      "em",
      "ber"
    ],
    [
      "h",
      "is\n"
    ],
    [
      "ri",
      "ght "
    ],
    [
      "p",
      "ic"
    ],
    [
      "i",
      "tion"
    ],
    [
      "on",
      "\n"
    ],
    [
      "ex",
      "pres"
    ],
    [
      "de",
      "ath"
    ],
    [
      "v",
      "e"
    ],
    [
      "pec",
      "t"
    ],
    [
      "i",
      "on "
    ],
    [
      "all",
      " the "
    ],
    [
      "su",
      "b"
    ],
    [
      "t",
      "ter "
    ],
    [
      "in",
      "de"
    ],
    [
      "un",
      "g"
    ],
    [
      "hear",
      "d "
    ],
    [
      "l",
      "aw"
    ],
    [
      "s ",
      "that "
    ],
    [
      "u",
      "ck"
    ],
    [
      "T",
      "H"
    ],
    [
      "le",
      "ep"
    ],
    [
      "them",
      " "
    ],
    [
      "again",
      "st "
    ],
    [
      "!",
      "”\n\n"
    ],
    [
      "i",
      "es "
    ],
    [
      "the ",
      "m"
    ],
    [
      ". ",
      "Wh"
    ],
    [
      "on",
      "d"
    ],
    [
      "Q",
      "u"
    ],
    [
      "A",
      "N"
    ],
    [
      " m",
      "uch"
    ],
    [
      "th",
      "ought "
    ],
    [
      "d",
      "uc"
    ],
    [
      "ed ",
      "her"
    ],
    [
      "w",
      "if"
    ],
    [
      "l",
      "in"
    ],
    [
      "ques",
      "tion"
    ],
    [
      "on",
      " his "
    ],
    [
      "on",
      "der"
    ],
    [
      "le",
      "d"
    ],
    [
      "s",
      "en"
    ],
    [
      "P",
      "r"
    ],
    [
      "long",
      " "
    ],
    [
      "an",
      "n"
    ],
    [
      "ing ",
      "and "
    ],
    [
      "w",
      "al"
    ],
    [
      "sid",
      "er"
    ],
    [
      "m",
      "ake "
    ],
    [
      "h",
      "ere "
    ],
    [
      "v",
      "al"
    ]
  ]
}