{
 "vocab": [
  "<|bos|>",
  "<|eos|>",
  "\t",
  "\n",
  " ",
  "!",
  "\"",
  "#",
  "$",
  "%",
  "&",
  "'",
  "(",
  ")",
  "*",
  "+",
  ",",
  "-",
  ".",
  "/",
  "0",
  "1",
  "2",
  "3",
  "4",
  "5",
  "6",
  "7",
  "8",
  "9",
  ":",
  ";",
  "<",
  "=",
  ">",
  "?",
  "@",
  "A",
  "B",
  "C",
  "D",
  "E",
  "F",
  "G",
  "H",
  "I",
  "J",
  "K",
  "L",
  "M",
  "N",
  "O",
  "P",
  "Q",
  "R",
  "S",
  "T",
  "U",
  "V",
  "W",
  "X",
  "Y",
  "Z",
  "[",
  "\\",
  "]",
  "^",
  "_",
  "`",
  "a",
  "b",
  "c",
  "d",
  "e",
  "f",
  "g",
  "h",
  "i",
  "j",
  "k",
  "l",
  "m",
  "n",
  "o",
  "p",
  "q",
  "r",
  "s",
  "t",
  "u",
  "v",
  "w",
  "x",
  "y",
  "z",
  "{",
  "|",
  "}",
  "~",
  "©",
  "°",
  "²",
  "è",
  "ő",
  "Σ",
  "θ",
  "λ",
  "π",
  "φ",
  "ᵀ",
  "√",
  "≈",
  "✅",
  "✨",
  "❌",
  "⭐",
  "🌑",
  "🌒",
  "🌓",
  "🌔",
  "🌕",
  "🌖",
  "🌗",
  "🌘",
  "🌙",
  "📐",
  "📦",
  "🔎",
  "🔑",
  "🔢",
  "🚨",
  "🤝",
  "🦀",
  "🧪",
  "  ",
  "    ",
  "        ",
  "in",
  "t ",
  ", ",
  "e ",
  "le",
  "er",
  "re",
  "= ",
  "st",
  "//",
  ");",
  "on",
  "or",
  "--",
  "at",
  "::",
  " {",
  "as",
  "let ",
  "()",
  " = ",
  "al",
  "// ",
  "it",
  "en",
  "es",
  "            ",
  " t",
  ": ",
  "(\"",
  "an",
  "rin",
  "ar",
  "==",
  "om",
  "ec",
  "us",
  "el",
  "                ",
  "ion",
  "ul",
  "un",
  "----",
  "e_",
  "t_",
  "d ",
  "he ",
  "    let ",
  "is",
  "ash",
  "!(\"",
  "\", ",
  "00",
  "ap",
  "to",
  "n ",
  "ch",
  "lo",
  "hash",
  "for",
  "ut ",
  ") ",
  "ur",
  "ex",
  "    }",
  "ring",
  "ro",
  "prin",
  "ad",
  "        let ",
  "im",
  "> ",
  "print",
  "f ",
  "ut",
  "    // ",
  "();",
  "std",
  "ln",
  ", 0",
  "ic",
  "println",
  "====",
  "mut ",
  "ing",
  "ac",
  "println!(\"",
  "ge",
  ").",
  " the ",
  "co",
  "pt",
  "ne",
  "fn ",
  "mo",
  "de",
  "ent",
  "(&",
  "di",
  "elf",
  "am",
  "um",
  "il",
  "and",
  ", 0x",
  "wor",
  "s ",
  "aw",
  "_st",
  "ke",
  "y ",
  "}\", ",
  "self",
  "te",
  "one",
  "o ",
  "\");",
  "--------",
  "ma",
  "work",
  "St",
  "con",
  "new",
  "if ",
  "        }",
  "ig",
  "os",
  "ue",
  "ub",
  "32",
  "a ",
  "res",
  "/ ",
  "64",
  "ess",
  "-> ",
  "rr",
  "mat",
  "th",
  "ser",
  "wr",
  "for ",
  "ation",
  "ult",
  "str",
  "is ",
  "() {",
  "use ",
  "().",
  "Err",
  "e(",
  "pro",
  "err",
  "val",
  "in ",
  "ref",
  "d_",
  "arg",
  "cl",
  "dat",
  "ter",
  "omm",
  "rom",
  "0.",
  "ile",
  "::new",
  "- ",
  "po",
  "?;",
  "e = ",
  "> {",
  "\")",
  ": {",
  "lin",
  "s.",
  "_string",
  "wrap",
  "iz",
  "key",
  "String",
  "ing ",
  "e {",
  "rs",
  "ri",
  "ver",
  "unwrap",
  "from",
  ") -> ",
  "        // ",
  "())",
  "cur",
  "========",
  "/// ",
  "* ",
  "ait",
  "nc",
  "1.",
  "self.",
  "id",
  "se",
  "to_string",
  "    println!(\"",
  "; ",
  ": &",
  " to ",
  "_s",
  "ct",
  "!(",
  "pub",
  "tr",
  "no",
  "ync",
  "0000",
  "Som",
  "ren",
  "main",
  "pl",
  "ha",
  "<|",
  "os|",
  "os|>",
  "ect",
  "\", \"",
  "io",
  "std::",
  " (",
  ".to_string",
  "    let mut ",
  ", 0x1",
  "cal",
  "await",
  "Ok",
  "#[",
  "fs",
  "data",
  "clone",
  "Error",
  "by",
  "out",
  " +",
  ".rs",
  "as ",
  "read",
  "async",
  "25",
  "| ",
  "ag",
  "map",
  "ption",
  "Vec",
  "_h",
  "            }",
  "Ok(",
  ": {}\", ",
  "file",
  "        .",
  "f64",
  "asser",
  "iv",
  "log",
  "Git",
  "comm",
  "ind",
  "ush",
  "sp",
  "num",
  "256",
  "curren",
  "eq",
  "the ",
  "ob",
  "ol",
  "());",
  "format",
  "et",
  "_di",
  "\", \"#",
  "() ",
  "nam",
  "\\n",
  "ed ",
  "t = ",
  "Res",
  "bu",
  "_p",
  "coun",
  "ate ",
  "ed",
  "tre",
  "----------------",
  " =",
  "Some(",
  "els",
  ". ",
  "push",
  "ret",
  "ab",
  "lic",
  "{}",
  "er_",
  "all",
  "get_",
  "al ",
  "er ",
  "In",
  "ith",
  "(), ",
  " * ",
  "..",
  "ath",
  "cess",
  "len",
  "))",
  "GitV",
  "io::",
  ").unwrap",
  "GitVfs",
  "ize",
  "current_",
  "it ",
  "ir",
  "ch ",
  "Result",
  " th",
  "of ",
  "format!(\"",
  "async ",
  "up",
  "exp",
  ") {",
  "cont",
  "if",
  "fa",
  ", 0x0",
  "and ",
  "stderr",
  " + ",
  "age",
  "name",
  "iter",
  ") = ",
  "x_",
  "ev",
  "est",
  "obj",
  ", &",
  "pub ",
  "ead",
  "cre",
  "ry",
  "nv",
  "ay",
  "Vec<",
  "ff",
  "loc",
  "i ",
  "with",
  "        let mut ",
  "assert_",
  "es ",
  "Result<",
  "cul",
  "mess",
  " els",
  "\".to_string",
  "end",
  "ib",
  "            let ",
  "uc",
  "retur",
  "qu",
  "Lo",
  "nvm",
  "ask",
  "stan",
  "));",
  "u8",
  "em",
  "ate_",
  "ple",
  "tok",
  "que",
  "ho",
  "use std::",
  "remo",
  "option",
  "act",
  "i32",
  "es.",
  "ip",
  "The ",
  "byt",
  "var",
  "unk",
  "0;",
  "), ",
  "test",
  "wh",
  "ack",
  "eq!(",
  "_hash",
  "::from",
  "_hand",
  "t(",
  "env",
  "assert_eq!(",
  ": &str",
  "put",
  "};",
  "line",
  ".clone",
  ") =",
  "_or",
  "ace",
  "n(",
  "N_",
  " else {",
  "bug",
  "s_",
  "<|b",
  "<|bos|>",
  "---",
  "<|e",
  "<|eos|>",
  "ce",
  "ou",
  "    for ",
  "fn main",
  "od",
  "ate",
  "par",
  "ial",
  "spaw",
  "index",
  ")?;",
  "or ",
  "rim",
  "================",
  "10",
  "12",
  "    fn ",
  "vec",
  "ent ",
  "chunk",
  "(|",
  "EM",
  ")]",
  ").unwrap();",
  "sig",
  "ile ",
  "    pub ",
  "_ref",
  "00000000",
  "le ",
  "sha",
  "\t\t",
  "\",",
  "1 ",
  "der",
  "ist",
  "an ",
  "Comm",
  "--- ",
  "{}\", ",
  "1;",
  "        if ",
  "per",
  "Log",
  "),",
  "er.",
  " // ",
  "ction",
  "work_",
  "commit",
  "of",
  "self, ",
  "fin",
  "com",
  "ER",
  ": u",
  "];",
  "return ",
  "min",
  "sc",
  "result",
  "git",
  "bas",
  "tokio::",
  "message",
  "Hash",
  "] ",
  "                    ",
  "mov",
  "add",
  ", \"",
  "process",
  "valu",
  "ull",
  "fo",
  "::new();",
  "                                ",
  "oin",
  "error",
  "push(",
  "::new(",
  "Err(",
  "0/",
  "numb",
  "spawn(",
  "be ",
  "@@",
  "path",
  "None",
  "    #[",
  "    if ",
  "remot",
  "0 ",
  "        assert_eq!(",
  "not ",
  "ure",
  "stanc",
  "bytes",
  "Ex",
  "De",
  "await?;",
  "mod",
  "is_",
  "le = ",
  "le.",
  "do",
  "to_",
  " test",
  "\\\"",
  "fn main() {",
  "resul",
  "object",
  ", 1",
  "pi",
  "Th",
  "k ",
  "Re",
  "to ",
  "rc",
  "inst",
  "sum",
  "enc",
  "No",
  "match ",
  " {}",
  "tree_",
  "conf",
  "_str",
  "s(",
  "atus",
  "0..",
  "_m",
  "tar",
  "while ",
  "e.",
  "ran",
  "ts",
  "calcul",
  "evel",
  "col",
  "![",
  "f32",
  "2 ",
  "prim",
  "ild",
  "Poin",
  "Level",
  ".s",
  "impl",
  "(),",
  "head",
  "2.",
  "pre",
  "cons",
  "ust ",
  "20",
  "option_hand",
  "LogLevel",
  "queu",
  "sion",
  "y_",
  "ation ",
  "y(",
  "task",
  "string",
  "::{",
  "BD",
  "und",
  "isib",
  "trace",
  "nvm_",
  "yp",
  "N_EM",
  "N_EMBD",
  "worker_",
  "uct ",
  "igh",
  "erm",
  "    //",
  "count",
  "async mov",
  ":?",
  "fun",
  "mp",
  "lam",
  "() -> ",
  "2 = ",
  "async move {",
  "    });",
  "er = ",
  "hand",
  "        println!(\"",
  "art",
  "spawn(async move {",
  "local",
  "en ",
  "sha256",
  " to",
  "Ke",
  "[u8",
  "            // ",
  "create_",
  "(&mut ",
  "_c",
  ": Vec<",
  "= 1;",
  "entry",
  "GitVfsError",
  "vec![",
  "s = ",
  "nex",
  "0.0",
  ".t",
  "    pub fn ",
  "ecte",
  "lines",
  "bd",
  "usize",
  "SI",
  "le_",
  "_or(",
  "Some",
  "in 0..",
  "ener",
  " => ",
  "This ",
  "LogLevel::",
  ", 0xf",
  "op",
  "ed_",
  "rea",
  "struct ",
  "qr",
  "ep",
  " = \"",
  "remote_",
  "appro",
  "HA",
  "        self."
 ],
 "merges": [
  [
   " ",
   " "
  ],
  [
   "  ",
   "  "
  ],
  [
   "    ",
   "    "
  ],
  [
   "i",
   "n"
  ],
  [
   "t",
   " "
  ],
  [
   ",",
   " "
  ],
  [
   "e",
   " "
  ],
  [
   "l",
   "e"
  ],
  [
   "e",
   "r"
  ],
  [
   "r",
   "e"
  ],
  [
   "=",
   " "
  ],
  [
   "s",
   "t"
  ],
  [
   "/",
   "/"
  ],
  [
   ")",
   ";"
  ],
  [
   "o",
   "n"
  ],
  [
   "o",
   "r"
  ],
  [
   "-",
   "-"
  ],
  [
   "a",
   "t"
  ],
  [
   ":",
   ":"
  ],
  [
   " ",
   "{"
  ],
  [
   "a",
   "s"
  ],
  [
   "le",
   "t "
  ],
  [
   "(",
   ")"
  ],
  [
   " ",
   "= "
  ],
  [
   "a",
   "l"
  ],
  [
   "//",
   " "
  ],
  [
   "i",
   "t"
  ],
  [
   "e",
   "n"
  ],
  [
   "e",
   "s"
  ],
  [
   "        ",
   "    "
  ],
  [
   " ",
   "t"
  ],
  [
   ":",
   " "
  ],
  [
   "(",
   "\""
  ],
  [
   "a",
   "n"
  ],
  [
   "r",
   "in"
  ],
  [
   "a",
   "r"
  ],
  [
   "=",
   "="
  ],
  [
   "o",
   "m"
  ],
  [
   "e",
   "c"
  ],
  [
   "u",
   "s"
  ],
  [
   "e",
   "l"
  ],
  [
   "        ",
   "        "
  ],
  [
   "i",
   "on"
  ],
  [
   "u",
   "l"
  ],
  [
   "u",
   "n"
  ],
  [
   "--",
   "--"
  ],
  [
   "e",
   "_"
  ],
  [
   "t",
   "_"
  ],
  [
   "d",
   " "
  ],
  [
   "h",
   "e "
  ],
  [
   "    ",
   "let "
  ],
  [
   "i",
   "s"
  ],
  [
   "as",
   "h"
  ],
  [
   "!",
   "(\""
  ],
  [
   "\"",
   ", "
  ],
  [
   "0",
   "0"
  ],
  [
   "a",
   "p"
  ],
  [
   "t",
   "o"
  ],
  [
   "n",
   " "
  ],
  [
   "c",
   "h"
  ],
  [
   "l",
   "o"
  ],
  [
   "h",
   "ash"
  ],
  [
   "f",
   "or"
  ],
  [
   "u",
   "t "
  ],
  [
   ")",
   " "
  ],
  [
   "u",
   "r"
  ],
  [
   "e",
   "x"
  ],
  [
   "    ",
   "}"
  ],
  [
   "rin",
   "g"
  ],
  [
   "r",
   "o"
  ],
  [
   "p",
   "rin"
  ],
  [
   "a",
   "d"
  ],
  [
   "        ",
   "let "
  ],
  [
   "i",
   "m"
  ],
  [
   ">",
   " "
  ],
  [
   "prin",
   "t"
  ],
  [
   "f",
   " "
  ],
  [
   "u",
   "t"
  ],
  [
   "    ",
   "// "
  ],
  [
   "(",
   ");"
  ],
  [
   "st",
   "d"
  ],
  [
   "l",
   "n"
  ],
  [
   ", ",
   "0"
  ],
  [
   "i",
   "c"
  ],
  [
   "print",
   "ln"
  ],
  [
   "==",
   "=="
  ],
  [
   "m",
   "ut "
  ],
  [
   "in",
   "g"
  ],
  [
   "a",
   "c"
  ],
  [
   "println",
   "!(\""
  ],
  [
   "g",
   "e"
  ],
  [
   ")",
   "."
  ],
  [
   " t",
   "he "
  ],
  [
   "c",
   "o"
  ],
  [
   "p",
   "t"
  ],
  [
   "n",
   "e"
  ],
  [
   "f",
   "n "
  ],
  [
   "m",
   "o"
  ],
  [
   "d",
   "e"
  ],
  [
   "en",
   "t"
  ],
  [
   "(",
   "&"
  ],
  [
   "d",
   "i"
  ],
  [
   "el",
   "f"
  ],
  [
   "a",
   "m"
  ],
  [
   "u",
   "m"
  ],
  [
   "i",
   "l"
  ],
  [
   "an",
   "d"
  ],
  [
   ", 0",
   "x"
  ],
  [
   "w",
   "or"
  ],
  [
   "s",
   " "
  ],
  [
   "a",
   "w"
  ],
  [
   "_",
   "st"
  ],
  [
   "k",
   "e"
  ],
  [
   "y",
   " "
  ],
  [
   "}",
   "\", "
  ],
  [
   "s",
   "elf"
  ],
  [
   "t",
   "e"
  ],
  [
   "on",
   "e"
  ],
  [
   "o",
   " "
  ],
  [
   "\"",
   ");"
  ],
  [
   "----",
   "----"
  ],
  [
   "m",
   "a"
  ],
  [
   "wor",
   "k"
  ],
  [
   "S",
   "t"
  ],
  [
   "c",
   "on"
  ],
  [
   "ne",
   "w"
  ],
  [
   "i",
   "f "
  ],
  [
   "        ",
   "}"
  ],
  [
   "i",
   "g"
  ],
  [
   "o",
   "s"
  ],
  [
   "u",
   "e"
  ],
  [
   "u",
   "b"
  ],
  [
   "3",
   "2"
  ],
  [
   "a",
   " "
  ],
  [
   "re",
   "s"
  ],
  [
   "/",
   " "
  ],
  [
   "6",
   "4"
  ],
  [
   "es",
   "s"
  ],
  [
   "-",
   "> "
  ],
  [
   "r",
   "r"
  ],
  [
   "m",
   "at"
  ],
  [
   "t",
   "h"
  ],
  [
   "s",
   "er"
  ],
  [
   "w",
   "r"
  ],
  [
   "for",
   " "
  ],
  [
   "at",
   "ion"
  ],
  [
   "ul",
   "t"
  ],
  [
   "st",
   "r"
  ],
  [
   "is",
   " "
  ],
  [
   "()",
   " {"
  ],
  [
   "us",
   "e "
  ],
  [
   "()",
   "."
  ],
  [
   "E",
   "rr"
  ],
  [
   "e",
   "("
  ],
  [
   "p",
   "ro"
  ],
  [
   "er",
   "r"
  ],
  [
   "v",
   "al"
  ],
  [
   "in",
   " "
  ],
  [
   "re",
   "f"
  ],
  [
   "d",
   "_"
  ],
  [
   "ar",
   "g"
  ],
  [
   "c",
   "l"
  ],
  [
   "d",
   "at"
  ],
  [
   "t",
   "er"
  ],
  [
   "om",
   "m"
  ],
  [
   "r",
   "om"
  ],
  [
   "0",
   "."
  ],
  [
   "i",
   "le"
  ],
  [
   "::",
   "new"
  ],
  [
   "-",
   " "
  ],
  [
   "p",
   "o"
  ],
  [
   "?",
   ";"
  ],
  [
   "e ",
   "= "
  ],
  [
   ">",
   " {"
  ],
  [
   "\"",
   ")"
  ],
  [
   ":",
   " {"
  ],
  [
   "l",
   "in"
  ],
  [
   "s",
   "."
  ],
  [
   "_st",
   "ring"
  ],
  [
   "wr",
   "ap"
  ],
  [
   "i",
   "z"
  ],
  [
   "ke",
   "y"
  ],
  [
   "St",
   "ring"
  ],
  [
   "ing",
   " "
  ],
  [
   "e ",
   "{"
  ],
  [
   "r",
   "s"
  ],
  [
   "r",
   "i"
  ],
  [
   "v",
   "er"
  ],
  [
   "un",
   "wrap"
  ],
  [
   "f",
   "rom"
  ],
  [
   ") ",
   "-> "
  ],
  [
   "        ",
   "// "
  ],
  [
   "()",
   ")"
  ],
  [
   "c",
   "ur"
  ],
  [
   "====",
   "===="
  ],
  [
   "//",
   "/ "
  ],
  [
   "*",
   " "
  ],
  [
   "a",
   "it"
  ],
  [
   "n",
   "c"
  ],
  [
   "1",
   "."
  ],
  [
   "self",
   "."
  ],
  [
   "i",
   "d"
  ],
  [
   "s",
   "e"
  ],
  [
   "to",
   "_string"
  ],
  [
   "    ",
   "println!(\""
  ],
  [
   ";",
   " "
  ],
  [
   ": ",
   "&"
  ],
  [
   " t",
   "o "
  ],
  [
   "_",
   "s"
  ],
  [
   "c",
   "t"
  ],
  [
   "!",
   "("
  ],
  [
   "p",
   "ub"
  ],
  [
   "t",
   "r"
  ],
  [
   "n",
   "o"
  ],
  [
   "y",
   "nc"
  ],
  [
   "00",
   "00"
  ],
  [
   "S",
   "om"
  ],
  [
   "re",
   "n"
  ],
  [
   "ma",
   "in"
  ],
  [
   "p",
   "l"
  ],
  [
   "h",
   "a"
  ],
  [
   "<",
   "|"
  ],
  [
   "os",
   "|"
  ],
  [
   "os|",
   ">"
  ],
  [
   "ec",
   "t"
  ],
  [
   "\", ",
   "\""
  ],
  [
   "i",
   "o"
  ],
  [
   "std",
   "::"
  ],
  [
   " ",
   "("
  ],
  [
   ".",
   "to_string"
  ],
  [
   "    let ",
   "mut "
  ],
  [
   ", 0x",
   "1"
  ],
  [
   "c",
   "al"
  ],
  [
   "aw",
   "ait"
  ],
  [
   "O",
   "k"
  ],
  [
   "#",
   "["
  ],
  [
   "f",
   "s"
  ],
  [
   "dat",
   "a"
  ],
  [
   "cl",
   "one"
  ],
  [
   "Err",
   "or"
  ],
  [
   "b",
   "y"
  ],
  [
   "o",
   "ut"
  ],
  [
   " ",
   "+"
  ],
  [
   ".",
   "rs"
  ],
  [
   "as",
   " "
  ],
  [
   "re",
   "ad"
  ],
  [
   "as",
   "ync"
  ],
  [
   "2",
   "5"
  ],
  [
   "|",
   " "
  ],
  [
   "a",
   "g"
  ],
  [
   "m",
   "ap"
  ],
  [
   "pt",
   "ion"
  ],
  [
   "V",
   "ec"
  ],
  [
   "_",
   "h"
  ],
  [
   "            ",
   "}"
  ],
  [
   "Ok",
   "("
  ],
  [
   ": {",
   "}\", "
  ],
  [
   "f",
   "ile"
  ],
  [
   "        ",
   "."
  ],
  [
   "f",
   "64"
  ],
  [
   "as",
   "ser"
  ],
  [
   "i",
   "v"
  ],
  [
   "lo",
   "g"
  ],
  [
   "G",
   "it"
  ],
  [
   "c",
   "omm"
  ],
  [
   "in",
   "d"
  ],
  [
   "us",
   "h"
  ],
  [
   "s",
   "p"
  ],
  [
   "n",
   "um"
  ],
  [
   "25",
   "6"
  ],
  [
   "cur",
   "ren"
  ],
  [
   "e",
   "q"
  ],
  [
   "t",
   "he "
  ],
  [
   "o",
   "b"
  ],
  [
   "o",
   "l"
  ],
  [
   "()",
   ");"
  ],
  [
   "for",
   "mat"
  ],
  [
   "e",
   "t"
  ],
  [
   "_",
   "di"
  ],
  [
   "\", \"",
   "#"
  ],
  [
   "()",
   " "
  ],
  [
   "n",
   "am"
  ],
  [
   "\\",
   "n"
  ],
  [
   "e",
   "d "
  ],
  [
   "t ",
   "= "
  ],
  [
   "R",
   "es"
  ],
  [
   "b",
   "u"
  ],
  [
   "_",
   "p"
  ],
  [
   "co",
   "un"
  ],
  [
   "at",
   "e "
  ],
  [
   "e",
   "d"
  ],
  [
   "t",
   "re"
  ],
  [
   "--------",
   "--------"
  ],
  [
   " ",
   "="
  ],
  [
   "Som",
   "e("
  ],
  [
   "el",
   "s"
  ],
  [
   ".",
   " "
  ],
  [
   "p",
   "ush"
  ],
  [
   "re",
   "t"
  ],
  [
   "a",
   "b"
  ],
  [
   "l",
   "ic"
  ],
  [
   "{",
   "}"
  ],
  [
   "er",
   "_"
  ],
  [
   "al",
   "l"
  ],
  [
   "ge",
   "t_"
  ],
  [
   "al",
   " "
  ],
  [
   "er",
   " "
  ],
  [
   "I",
   "n"
  ],
  [
   "it",
   "h"
  ],
  [
   "()",
   ", "
  ],
  [
   " ",
   "* "
  ],
  [
   ".",
   "."
  ],
  [
   "at",
   "h"
  ],
  [
   "c",
   "ess"
  ],
  [
   "le",
   "n"
  ],
  [
   ")",
   ")"
  ],
  [
   "Git",
   "V"
  ],
  [
   "io",
   "::"
  ],
  [
   ").",
   "unwrap"
  ],
  [
   "GitV",
   "fs"
  ],
  [
   "iz",
   "e"
  ],
  [
   "curren",
   "t_"
  ],
  [
   "i",
   "t "
  ],
  [
   "i",
   "r"
  ],
  [
   "ch",
   " "
  ],
  [
   "Res",
   "ult"
  ],
  [
   " t",
   "h"
  ],
  [
   "o",
   "f "
  ],
  [
   "format",
   "!(\""
  ],
  [
   "async",
   " "
  ],
  [
   "u",
   "p"
  ],
  [
   "ex",
   "p"
  ],
  [
   ")",
   " {"
  ],
  [
   "con",
   "t"
  ],
  [
   "i",
   "f"
  ],
  [
   "f",
   "a"
  ],
  [
   ", 0x",
   "0"
  ],
  [
   "an",
   "d "
  ],
  [
   "std",
   "err"
  ],
  [
   " +",
   " "
  ],
  [
   "a",
   "ge"
  ],
  [
   "nam",
   "e"
  ],
  [
   "it",
   "er"
  ],
  [
   ")",
   " = "
  ],
  [
   "x",
   "_"
  ],
  [
   "e",
   "v"
  ],
  [
   "e",
   "st"
  ],
  [
   "ob",
   "j"
  ],
  [
   ", ",
   "&"
  ],
  [
   "pub",
   " "
  ],
  [
   "e",
   "ad"
  ],
  [
   "c",
   "re"
  ],
  [
   "r",
   "y"
  ],
  [
   "n",
   "v"
  ],
  [
   "a",
   "y"
  ],
  [
   "Vec",
   "<"
  ],
  [
   "f",
   "f"
  ],
  [
   "lo",
   "c"
  ],
  [
   "i",
   " "
  ],
  [
   "w",
   "ith"
  ],
  [
   "        let ",
   "mut "
  ],
  [
   "asser",
   "t_"
  ],
  [
   "es",
   " "
  ],
  [
   "Result",
   "<"
  ],
  [
   "c",
   "ul"
  ],
  [
   "m",
   "ess"
  ],
  [
   " ",
   "els"
  ],
  [
   "\"",
   ".to_string"
  ],
  [
   "en",
   "d"
  ],
  [
   "i",
   "b"
  ],
  [
   "            ",
   "let "
  ],
  [
   "u",
   "c"
  ],
  [
   "ret",
   "ur"
  ],
  [
   "q",
   "u"
  ],
  [
   "L",
   "o"
  ],
  [
   "nv",
   "m"
  ],
  [
   "as",
   "k"
  ],
  [
   "st",
   "an"
  ],
  [
   ")",
   ");"
  ],
  [
   "u",
   "8"
  ],
  [
   "e",
   "m"
  ],
  [
   "at",
   "e_"
  ],
  [
   "p",
   "le"
  ],
  [
   "to",
   "k"
  ],
  [
   "q",
   "ue"
  ],
  [
   "h",
   "o"
  ],
  [
   "use ",
   "std::"
  ],
  [
   "re",
   "mo"
  ],
  [
   "o",
   "ption"
  ],
  [
   "ac",
   "t"
  ],
  [
   "i",
   "32"
  ],
  [
   "es",
   "."
  ],
  [
   "i",
   "p"
  ],
  [
   "T",
   "he "
  ],
  [
   "by",
   "t"
  ],
  [
   "v",
   "ar"
  ],
  [
   "un",
   "k"
  ],
  [
   "0",
   ";"
  ],
  [
   ")",
   ", "
  ],
  [
   "te",
   "st"
  ],
  [
   "w",
   "h"
  ],
  [
   "ac",
   "k"
  ],
  [
   "eq",
   "!("
  ],
  [
   "_",
   "hash"
  ],
  [
   "::",
   "from"
  ],
  [
   "_h",
   "and"
  ],
  [
   "t",
   "("
  ],
  [
   "en",
   "v"
  ],
  [
   "assert_",
   "eq!("
  ],
  [
   ": &",
   "str"
  ],
  [
   "p",
   "ut"
  ],
  [
   "}",
   ";"
  ],
  [
   "lin",
   "e"
  ],
  [
   ".",
   "clone"
  ],
  [
   ") ",
   "="
  ],
  [
   "_",
   "or"
  ],
  [
   "ac",
   "e"
  ],
  [
   "n",
   "("
  ],
  [
   "N",
   "_"
  ],
  [
   " els",
   "e {"
  ],
  [
   "bu",
   "g"
  ],
  [
   "s",
   "_"
  ],
  [
   "<|",
   "b"
  ],
  [
   "<|b",
   "os|>"
  ],
  [
   "--",
   "-"
  ],
  [
   "<|",
   "e"
  ],
  [
   "<|e",
   "os|>"
  ],
  [
   "c",
   "e"
  ],
  [
   "o",
   "u"
  ],
  [
   "    ",
   "for "
  ],
  [
   "fn ",
   "main"
  ],
  [
   "o",
   "d"
  ],
  [
   "at",
   "e"
  ],
  [
   "p",
   "ar"
  ],
  [
   "i",
   "al"
  ],
  [
   "sp",
   "aw"
  ],
  [
   "ind",
   "ex"
  ],
  [
   ")",
   "?;"
  ],
  [
   "or",
   " "
  ],
  [
   "r",
   "im"
  ],
  [
   "========",
   "========"
  ],
  [
   "1",
   "0"
  ],
  [
   "1",
   "2"
  ],
  [
   "    ",
   "fn "
  ],
  [
   "v",
   "ec"
  ],
  [
   "en",
   "t "
  ],
  [
   "ch",
   "unk"
  ],
  [
   "(",
   "|"
  ],
  [
   "E",
   "M"
  ],
  [
   ")",
   "]"
  ],
  [
   ").unwrap",
   "();"
  ],
  [
   "s",
   "ig"
  ],
  [
   "il",
   "e "
  ],
  [
   "    ",
   "pub "
  ],
  [
   "_",
   "ref"
  ],
  [
   "0000",
   "0000"
  ],
  [
   "l",
   "e "
  ],
  [
   "s",
   "ha"
  ],
  [
   "\t",
   "\t"
  ],
  [
   "\"",
   ","
  ],
  [
   "1",
   " "
  ],
  [
   "d",
   "er"
  ],
  [
   "i",
   "st"
  ],
  [
   "an",
   " "
  ],
  [
   "C",
   "omm"
  ],
  [
   "--",
   "- "
  ],
  [
   "{",
   "}\", "
  ],
  [
   "1",
   ";"
  ],
  [
   "        ",
   "if "
  ],
  [
   "p",
   "er"
  ],
  [
   "Lo",
   "g"
  ],
  [
   ")",
   ","
  ],
  [
   "er",
   "."
  ],
  [
   " ",
   "// "
  ],
  [
   "ct",
   "ion"
  ],
  [
   "work",
   "_"
  ],
  [
   "comm",
   "it"
  ],
  [
   "o",
   "f"
  ],
  [
   "self",
   ", "
  ],
  [
   "f",
   "in"
  ],
  [
   "c",
   "om"
  ],
  [
   "E",
   "R"
  ],
  [
   ": ",
   "u"
  ],
  [
   "]",
   ";"
  ],
  [
   "retur",
   "n "
  ],
  [
   "m",
   "in"
  ],
  [
   "s",
   "c"
  ],
  [
   "res",
   "ult"
  ],
  [
   "g",
   "it"
  ],
  [
   "b",
   "as"
  ],
  [
   "tok",
   "io::"
  ],
  [
   "mess",
   "age"
  ],
  [
   "H",
   "ash"
  ],
  [
   "]",
   " "
  ],
  [
   "        ",
   "            "
  ],
  [
   "mo",
   "v"
  ],
  [
   "ad",
   "d"
  ],
  [
   ", ",
   "\""
  ],
  [
   "pro",
   "cess"
  ],
  [
   "val",
   "u"
  ],
  [
   "ul",
   "l"
  ],
  [
   "f",
   "o"
  ],
  [
   "::new",
   "();"
  ],
  [
   "                ",
   "                "
  ],
  [
   "o",
   "in"
  ],
  [
   "err",
   "or"
  ],
  [
   "push",
   "("
  ],
  [
   "::new",
   "("
  ],
  [
   "Err",
   "("
  ],
  [
   "0",
   "/"
  ],
  [
   "num",
   "b"
  ],
  [
   "spaw",
   "n("
  ],
  [
   "b",
   "e "
  ],
  [
   "@",
   "@"
  ],
  [
   "p",
   "ath"
  ],
  [
   "N",
   "one"
  ],
  [
   "    ",
   "#["
  ],
  [
   "    ",
   "if "
  ],
  [
   "remo",
   "t"
  ],
  [
   "0",
   " "
  ],
  [
   "        ",
   "assert_eq!("
  ],
  [
   "no",
   "t "
  ],
  [
   "u",
   "re"
  ],
  [
   "stan",
   "c"
  ],
  [
   "byt",
   "es"
  ],
  [
   "E",
   "x"
  ],
  [
   "D",
   "e"
  ],
  [
   "await",
   "?;"
  ],
  [
   "mo",
   "d"
  ],
  [
   "is",
   "_"
  ],
  [
   "l",
   "e = "
  ],
  [
   "le",
   "."
  ],
  [
   "d",
   "o"
  ],
  [
   "to",
   "_"
  ],
  [
   " t",
   "est"
  ],
  [
   "\\",
   "\""
  ],
  [
   "fn main",
   "() {"
  ],
  [
   "res",
   "ul"
  ],
  [
   "obj",
   "ect"
  ],
  [
   ", ",
   "1"
  ],
  [
   "p",
   "i"
  ],
  [
   "T",
   "h"
  ],
  [
   "k",
   " "
  ],
  [
   "R",
   "e"
  ],
  [
   "to",
   " "
  ],
  [
   "r",
   "c"
  ],
  [
   "in",
   "st"
  ],
  [
   "s",
   "um"
  ],
  [
   "en",
   "c"
  ],
  [
   "N",
   "o"
  ],
  [
   "mat",
   "ch "
  ],
  [
   " {",
   "}"
  ],
  [
   "tre",
   "e_"
  ],
  [
   "con",
   "f"
  ],
  [
   "_st",
   "r"
  ],
  [
   "s",
   "("
  ],
  [
   "at",
   "us"
  ],
  [
   "0.",
   "."
  ],
  [
   "_",
   "m"
  ],
  [
   "t",
   "ar"
  ],
  [
   "wh",
   "ile "
  ],
  [
   "e",
   "."
  ],
  [
   "r",
   "an"
  ],
  [
   "t",
   "s"
  ],
  [
   "cal",
   "cul"
  ],
  [
   "ev",
   "el"
  ],
  [
   "co",
   "l"
  ],
  [
   "!",
   "["
  ],
  [
   "f",
   "32"
  ],
  [
   "2",
   " "
  ],
  [
   "p",
   "rim"
  ],
  [
   "il",
   "d"
  ],
  [
   "P",
   "oin"
  ],
  [
   "L",
   "evel"
  ],
  [
   ".",
   "s"
  ],
  [
   "im",
   "pl"
  ],
  [
   "()",
   ","
  ],
  [
   "h",
   "ead"
  ],
  [
   "2",
   "."
  ],
  [
   "p",
   "re"
  ],
  [
   "con",
   "s"
  ],
  [
   "us",
   "t "
  ],
  [
   "2",
   "0"
  ],
  [
   "option",
   "_hand"
  ],
  [
   "Log",
   "Level"
  ],
  [
   "que",
   "u"
  ],
  [
   "s",
   "ion"
  ],
  [
   "y",
   "_"
  ],
  [
   "ation",
   " "
  ],
  [
   "y",
   "("
  ],
  [
   "t",
   "ask"
  ],
  [
   "st",
   "ring"
  ],
  [
   "::",
   "{"
  ],
  [
   "B",
   "D"
  ],
  [
   "un",
   "d"
  ],
  [
   "is",
   "ib"
  ],
  [
   "tr",
   "ace"
  ],
  [
   "nvm",
   "_"
  ],
  [
   "y",
   "p"
  ],
  [
   "N_",
   "EM"
  ],
  [
   "N_EM",
   "BD"
  ],
  [
   "work",
   "er_"
  ],
  [
   "uc",
   "t "
  ],
  [
   "ig",
   "h"
  ],
  [
   "er",
   "m"
  ],
  [
   "    ",
   "//"
  ],
  [
   "coun",
   "t"
  ],
  [
   "async ",
   "mov"
  ],
  [
   ":",
   "?"
  ],
  [
   "f",
   "un"
  ],
  [
   "m",
   "p"
  ],
  [
   "l",
   "am"
  ],
  [
   "() ",
   "-> "
  ],
  [
   "2",
   " = "
  ],
  [
   "async mov",
   "e {"
  ],
  [
   "    }",
   ");"
  ],
  [
   "er",
   " = "
  ],
  [
   "h",
   "and"
  ],
  [
   "        ",
   "println!(\""
  ],
  [
   "ar",
   "t"
  ],
  [
   "spawn(",
   "async move {"
  ],
  [
   "lo",
   "cal"
  ],
  [
   "en",
   " "
  ],
  [
   "sha",
   "256"
  ],
  [
   " t",
   "o"
  ],
  [
   "K",
   "e"
  ],
  [
   "[",
   "u8"
  ],
  [
   "            ",
   "// "
  ],
  [
   "cre",
   "ate_"
  ],
  [
   "(&",
   "mut "
  ],
  [
   "_",
   "c"
  ],
  [
   ": ",
   "Vec<"
  ],
  [
   "= ",
   "1;"
  ],
  [
   "ent",
   "ry"
  ],
  [
   "GitVfs",
   "Error"
  ],
  [
   "vec",
   "!["
  ],
  [
   "s",
   " = "
  ],
  [
   "n",
   "ex"
  ],
  [
   "0.",
   "0"
  ],
  [
   ".",
   "t"
  ],
  [
   "    pub ",
   "fn "
  ],
  [
   "ec",
   "te"
  ],
  [
   "lin",
   "es"
  ],
  [
   "b",
   "d"
  ],
  [
   "us",
   "ize"
  ],
  [
   "S",
   "I"
  ],
  [
   "le",
   "_"
  ],
  [
   "_or",
   "("
  ],
  [
   "Som",
   "e"
  ],
  [
   "in ",
   "0.."
  ],
  [
   "en",
   "er"
  ],
  [
   " =",
   "> "
  ],
  [
   "Th",
   "is "
  ],
  [
   "LogLevel",
   "::"
  ],
  [
   ", 0x",
   "f"
  ],
  [
   "o",
   "p"
  ],
  [
   "e",
   "d_"
  ],
  [
   "re",
   "a"
  ],
  [
   "str",
   "uct "
  ],
  [
   "q",
   "r"
  ],
  [
   "e",
   "p"
  ],
  [
   " = ",
   "\""
  ],
  [
   "remot",
   "e_"
  ],
  [
   "ap",
   "pro"
  ],
  [
   "H",
   "A"
  ],
  [
   "        ",
   "self."
  ]
 ]
}