{
  "vocab": [
    "<|bos|>",
    "<|eos|>",
    "\n",
    " ",
    "!",
    "\"",
    "#",
    "$",
    "%",
    "&",
    "'",
    "(",
    ")",
    "*",
    "+",
    ",",
    "-",
    ".",
    "/",
    "0",
    "1",
    "2",
    "3",
    "4",
    "5",
    "6",
    "7",
    "8",
    "9",
    ":",
    ";",
    "<",
    "=",
    ">",
    "?",
    "@",
    "A",
    "B",
    "C",
    "D",
    "E",
    "F",
    "G",
    "H",
    "I",
    "J",
    "K",
    "L",
    "M",
    "N",
    "O",
    "P",
    "Q",
    "R",
    "S",
    "T",
    "U",
    "V",
    "W",
    "X",
    "Y",
    "Z",
    "[",
    "\\",
    "]",
    "^",
    "_",
    "`",
    "a",
    "b",
    "c",
    "d",
    "e",
    "f",
    "g",
    "h",
    "i",
    "j",
    "k",
    "l",
    "m",
    "n",
    "o",
    "p",
    "q",
    "r",
    "s",
    "t",
    "u",
    "v",
    "w",
    "x",
    "y",
    "z",
    "{",
    "|",
    "}",
    "~",
    "e ",
    " t",
    "in",
    " a",
    " th",
    "t ",
    "er",
    "d ",
    "s ",
    "on",
    "en",
    " the ",
    "ing",
    "==",
    "or",
    ". ",
    "at",
    "ou",
    "re",
    "it",
    "an",
    "\n\n",
    ", ",
    "st",
    "--",
    "wa",
    " an",
    "y ",
    "o ",
    "al",
    "ed",
    " a ",
    "ha",
    "of",
    "om",
    "es",
    "ion",
    "he ",
    "====",
    "ing ",
    "ch",
    "el",
    "ed ",
    "  ",
    "ar",
    "th",
    "il",
    "is",
    "ic",
    ".\n\n",
    " and ",
    "ent",
    "em",
    "ec",
    "ro",
    " s",
    " to ",
    "no",
    "wh",
    "ra",
    "was ",
    " c",
    "bu",
    "The ",
    "ol",
    "ver",
    "et",
    "at ",
    "for",
    "e t",
    "of ",
    "========",
    "pl",
    " that ",
    "is ",
    "im",
    "us",
    "ation",
    "----",
    "was",
    "it ",
    "un",
    "ig",
    " to",
    "er ",
    "wor",
    "es ",
    "ex",
    "oul",
    "ith",
    "id",
    "ag",
    "    ",
    "\"\n\n",
    "ur",
    "you",
    "ct",
    "op",
    "od",
    "ea",
    "bl",
    "ow",
    "with",
    "os",
    ". The ",
    "en ",
    "int",
    "ould ",
    "pro",
    "ere ",
    " m",
    "con",
    " and",
    "if",
    "ir",
    "iv",
    "all",
    "a ",
    "am",
    "res",
    "had ",
    "as",
    "\" ",
    ": ",
    "in ",
    ".\"\n\n",
    "ac",
    "ess",
    "al ",
    "one ",
    "um",
    "hat ",
    "ul",
    "ome",
    "Th",
    "be",
    "ent ",
    ", the ",
    "-- ",
    "ut",
    "de",
    "ma",
    "ax",
    "not ",
    "com",
    " the",
    " al",
    "buil",
    "rom",
    "chan",
    "jax",
    "per",
    "ne",
    "in the ",
    "================",
    "ect",
    "Ajax",
    "ist",
    "igh",
    "--------",
    "e. ",
    "work",
    "ke ",
    "pt",
    "'s ",
    "e, ",
    "est",
    "It ",
    "ri",
    "qu",
    "and",
    "lo",
    "enc",
    "gh",
    "li",
    ".\n\n\"",
    "bou",
    "an ",
    " ar",
    "nel",
    "la",
    "bo",
    "ad",
    "ill",
    "e the ",
    "ever",
    "s. ",
    "channel",
    " d",
    "we",
    "ough",
    "s, ",
    " the s",
    "ch ",
    "ion ",
    "pp",
    "be ",
    ", and ",
    "were ",
    "me",
    " as",
    " abou",
    "build",
    "on ",
    "AI",
    "ink",
    "from",
    "        ",
    "ear",
    "An",
    " ag",
    "who ",
    "some",
    "ant",
    "do",
    "oun",
    ",\" ",
    "its ",
    " a s",
    "Lis",
    "ly ",
    "or ",
    "ter",
    "but ",
    "po",
    "rav",
    "not",
    "ev",
    "ation ",
    "would ",
    " that",
    "thing ",
    "ve ",
    "thing",
    "str",
    "ay",
    "sh",
    "for ",
    "our",
    " and the ",
    "now",
    "vers",
    "Trav",
    "k ",
    "you ",
    "and ",
    "own",
    " con",
    "was the ",
    "ate ",
    "with ",
    " tool",
    "se",
    "ity",
    "par",
    "go",
    "abl",
    "yst",
    "ed to ",
    "der",
    "way",
    "like ",
    "gen",
    "bet",
    "oth",
    "ed the ",
    "of the ",
    "fer",
    "ath",
    "what ",
    ":\n\n",
    "ly",
    "bec",
    ": \"",
    ". It ",
    "ame ",
    "ystem",
    "age ",
    "ph",
    "p ",
    "mor",
    "but",
    "su",
    "ure ",
    "pe",
    "Ajax ",
    "ain",
    "ust ",
    "s and ",
    "form",
    " an ",
    "fin",
    "use ",
    "ive ",
    "ox",
    "hop",
    "ight ",
    ":\n\n\"",
    " at",
    "ot",
    "ight",
    "----------------",
    "di",
    "ity ",
    "ok",
    "He ",
    " about ",
    "sp",
    "sa",
    "cl",
    "could ",
    "hum",
    "ple ",
    "ang",
    "pos",
    "mod",
    "oxhop",
    "E ",
    "was a ",
    "ing the ",
    "sel",
    " they ",
    "ust",
    "des",
    "had",
    "red",
    "end",
    "'t ",
    "pon",
    "iz",
    " them",
    "gener",
    "ab",
    "out",
    "his ",
    "your",
    "ud",
    "inter",
    "mess",
    "cod",
    "e that ",
    "ed, ",
    " all",
    "read",
    "oc",
    "ed. ",
    "ga",
    " ac",
    "I ",
    "har",
    "ine ",
    "uct",
    "cor",
    "betwe",
    "================================",
    "ally ",
    "AP",
    "ell",
    "ey ",
    "TH",
    "es, ",
    "pr",
    "og",
    " at ",
    " tr",
    "et ",
    "e to ",
    "ost ",
    "cont",
    "red ",
    " their",
    "ob",
    "channel ",
    "ign",
    " this ",
    "e,",
    "ER",
    "Traves ",
    "word",
    "A ",
    "rough",
    " com",
    ". Th",
    "self",
    "ool",
    "just ",
    "new",
    "ort",
    "rit",
    "comm",
    "ated ",
    "ence ",
    "-- the ",
    "se ",
    "pers",
    "vis",
    "cri",
    "how",
    "s that ",
    "link",
    "know",
    "ca"
  ],
  "merges": [
    [
      "e",
      " "
    ],
    [
      " ",
      "t"
    ],
    [
      "i",
      "n"
    ],
    [
      " ",
      "a"
    ],
    [
      " t",
      "h"
    ],
    [
      "t",
      " "
    ],
    [
      "e",
      "r"
    ],
    [
      "d",
      " "
    ],
    [
      "s",
      " "
    ],
    [
      "o",
      "n"
    ],
    [
      "e",
      "n"
    ],
    [
      " th",
      "e "
    ],
    [
      "in",
      "g"
    ],
    [
      "=",
      "="
    ],
    [
      "o",
      "r"
    ],
    [
      ".",
      " "
    ],
    [
      "a",
      "t"
    ],
    [
      "o",
      "u"
    ],
    [
      "r",
      "e"
    ],
    [
      "i",
      "t"
    ],
    [
      "a",
      "n"
    ],
    [
      "\n",
      "\n"
    ],
    [
      ",",
      " "
    ],
    [
      "s",
      "t"
    ],
    [
      "-",
      "-"
    ],
    [
      "w",
      "a"
    ],
    [
      " a",
      "n"
    ],
    [
      "y",
      " "
    ],
    [
      "o",
      " "
    ],
    [
      "a",
      "l"
    ],
    [
      "e",
      "d"
    ],
    [
      " a",
      " "
    ],
    [
      "h",
      "a"
    ],
    [
      "o",
      "f"
    ],
    [
      "o",
      "m"
    ],
    [
      "e",
      "s"
    ],
    [
      "i",
      "on"
    ],
    [
      "h",
      "e "
    ],
    [
      "==",
      "=="
    ],
    [
      "ing",
      " "
    ],
    [
      "c",
      "h"
    ],
    [
      "e",
      "l"
    ],
    [
      "e",
      "d "
    ],
    [
      " ",
      " "
    ],
    [
      "a",
      "r"
    ],
    [
      "t",
      "h"
    ],
    [
      "i",
      "l"
    ],
    [
      "i",
      "s"
    ],
    [
      "i",
      "c"
    ],
    [
      ".",
      "\n\n"
    ],
    [
      " an",
      "d "
    ],
    [
      "en",
      "t"
    ],
    [
      "e",
      "m"
    ],
    [
      "e",
      "c"
    ],
    [
      "r",
      "o"
    ],
    [
      " ",
      "s"
    ],
    [
      " t",
      "o "
    ],
    [
      "n",
      "o"
    ],
    [
      "w",
      "h"
    ],
    [
      "r",
      "a"
    ],
    [
      "wa",
      "s "
    ],
    [
      " ",
      "c"
    ],
    [
      "b",
      "u"
    ],
    [
      "T",
      "he "
    ],
    [
      "o",
      "l"
    ],
    [
      "v",
      "er"
    ],
    [
      "e",
      "t"
    ],
    [
      "a",
      "t "
    ],
    [
      "f",
      "or"
    ],
    [
      "e ",
      "t"
    ],
    [
      "of",
      " "
    ],
    [
      "====",
      "===="
    ],
    [
      "p",
      "l"
    ],
    [
      " th",
      "at "
    ],
    [
      "i",
      "s "
    ],
    [
      "i",
      "m"
    ],
    [
      "u",
      "s"
    ],
    [
      "at",
      "ion"
    ],
    [
      "--",
      "--"
    ],
    [
      "wa",
      "s"
    ],
    [
      "i",
      "t "
    ],
    [
      "u",
      "n"
    ],
    [
      "i",
      "g"
    ],
    [
      " t",
      "o"
    ],
    [
      "er",
      " "
    ],
    [
      "w",
      "or"
    ],
    [
      "e",
      "s "
    ],
    [
      "e",
      "x"
    ],
    [
      "ou",
      "l"
    ],
    [
      "it",
      "h"
    ],
    [
      "i",
      "d"
    ],
    [
      "a",
      "g"
    ],
    [
      "  ",
      "  "
    ],
    [
      "\"",
      "\n\n"
    ],
    [
      "u",
      "r"
    ],
    [
      "y",
      "ou"
    ],
    [
      "c",
      "t"
    ],
    [
      "o",
      "p"
    ],
    [
      "o",
      "d"
    ],
    [
      "e",
      "a"
    ],
    [
      "b",
      "l"
    ],
    [
      "o",
      "w"
    ],
    [
      "w",
      "ith"
    ],
    [
      "o",
      "s"
    ],
    [
      ". ",
      "The "
    ],
    [
      "en",
      " "
    ],
    [
      "in",
      "t"
    ],
    [
      "oul",
      "d "
    ],
    [
      "p",
      "ro"
    ],
    [
      "er",
      "e "
    ],
    [
      " ",
      "m"
    ],
    [
      "c",
      "on"
    ],
    [
      " an",
      "d"
    ],
    [
      "i",
      "f"
    ],
    [
      "i",
      "r"
    ],
    [
      "i",
      "v"
    ],
    [
      "al",
      "l"
    ],
    [
      "a",
      " "
    ],
    [
      "a",
      "m"
    ],
    [
      "re",
      "s"
    ],
    [
      "ha",
      "d "
    ],
    [
      "a",
      "s"
    ],
    [
      "\"",
      " "
    ],
    [
      ":",
      " "
    ],
    [
      "in",
      " "
    ],
    [
      ".",
      "\"\n\n"
    ],
    [
      "a",
      "c"
    ],
    [
      "es",
      "s"
    ],
    [
      "al",
      " "
    ],
    [
      "on",
      "e "
    ],
    [
      "u",
      "m"
    ],
    [
      "ha",
      "t "
    ],
    [
      "u",
      "l"
    ],
    [
      "om",
      "e"
    ],
    [
      "T",
      "h"
    ],
    [
      "b",
      "e"
    ],
    [
      "en",
      "t "
    ],
    [
      ",",
      " the "
    ],
    [
      "--",
      " "
    ],
    [
      "u",
      "t"
    ],
    [
      "d",
      "e"
    ],
    [
      "m",
      "a"
    ],
    [
      "a",
      "x"
    ],
    [
      "no",
      "t "
    ],
    [
      "c",
      "om"
    ],
    [
      " th",
      "e"
    ],
    [
      " a",
      "l"
    ],
    [
      "bu",
      "il"
    ],
    [
      "r",
      "om"
    ],
    [
      "ch",
      "an"
    ],
    [
      "j",
      "ax"
    ],
    [
      "p",
      "er"
    ],
    [
      "n",
      "e"
    ],
    [
      "in",
      " the "
    ],
    [
      "========",
      "========"
    ],
    [
      "ec",
      "t"
    ],
    [
      "A",
      "jax"
    ],
    [
      "i",
      "st"
    ],
    [
      "ig",
      "h"
    ],
    [
      "----",
      "----"
    ],
    [
      "e",
      ". "
    ],
    [
      "wor",
      "k"
    ],
    [
      "k",
      "e "
    ],
    [
      "p",
      "t"
    ],
    [
      "'",
      "s "
    ],
    [
      "e",
      ", "
    ],
    [
      "e",
      "st"
    ],
    [
      "I",
      "t "
    ],
    [
      "r",
      "i"
    ],
    [
      "q",
      "u"
    ],
    [
      "an",
      "d"
    ],
    [
      "l",
      "o"
    ],
    [
      "en",
      "c"
    ],
    [
      "g",
      "h"
    ],
    [
      "l",
      "i"
    ],
    [
      ".\n\n",
      "\""
    ],
    [
      "b",
      "ou"
    ],
    [
      "an",
      " "
    ],
    [
      " a",
      "r"
    ],
    [
      "n",
      "el"
    ],
    [
      "l",
      "a"
    ],
    [
      "b",
      "o"
    ],
    [
      "a",
      "d"
    ],
    [
      "il",
      "l"
    ],
    [
      "e t",
      "he "
    ],
    [
      "e",
      "ver"
    ],
    [
      "s",
      ". "
    ],
    [
      "chan",
      "nel"
    ],
    [
      " ",
      "d"
    ],
    [
      "w",
      "e"
    ],
    [
      "ou",
      "gh"
    ],
    [
      "s",
      ", "
    ],
    [
      " the ",
      "s"
    ],
    [
      "ch",
      " "
    ],
    [
      "ion",
      " "
    ],
    [
      "p",
      "p"
    ],
    [
      "b",
      "e "
    ],
    [
      ",",
      " and "
    ],
    [
      "w",
      "ere "
    ],
    [
      "m",
      "e"
    ],
    [
      " a",
      "s"
    ],
    [
      " a",
      "bou"
    ],
    [
      "buil",
      "d"
    ],
    [
      "on",
      " "
    ],
    [
      "A",
      "I"
    ],
    [
      "in",
      "k"
    ],
    [
      "f",
      "rom"
    ],
    [
      "    ",
      "    "
    ],
    [
      "e",
      "ar"
    ],
    [
      "A",
      "n"
    ],
    [
      " a",
      "g"
    ],
    [
      "wh",
      "o "
    ],
    [
      "s",
      "ome"
    ],
    [
      "an",
      "t"
    ],
    [
      "d",
      "o"
    ],
    [
      "ou",
      "n"
    ],
    [
      ",",
      "\" "
    ],
    [
      "it",
      "s "
    ],
    [
      " a ",
      "s"
    ],
    [
      "L",
      "is"
    ],
    [
      "l",
      "y "
    ],
    [
      "or",
      " "
    ],
    [
      "t",
      "er"
    ],
    [
      "bu",
      "t "
    ],
    [
      "p",
      "o"
    ],
    [
      "ra",
      "v"
    ],
    [
      "no",
      "t"
    ],
    [
      "e",
      "v"
    ],
    [
      "ation",
      " "
    ],
    [
      "w",
      "ould "
    ],
    [
      " th",
      "at"
    ],
    [
      "th",
      "ing "
    ],
    [
      "v",
      "e "
    ],
    [
      "th",
      "ing"
    ],
    [
      "st",
      "r"
    ],
    [
      "a",
      "y"
    ],
    [
      "s",
      "h"
    ],
    [
      "for",
      " "
    ],
    [
      "ou",
      "r"
    ],
    [
      " and",
      " the "
    ],
    [
      "no",
      "w"
    ],
    [
      "ver",
      "s"
    ],
    [
      "T",
      "rav"
    ],
    [
      "k",
      " "
    ],
    [
      "you",
      " "
    ],
    [
      "an",
      "d "
    ],
    [
      "ow",
      "n"
    ],
    [
      " c",
      "on"
    ],
    [
      "was",
      " the "
    ],
    [
      "at",
      "e "
    ],
    [
      "with",
      " "
    ],
    [
      " to",
      "ol"
    ],
    [
      "s",
      "e"
    ],
    [
      "it",
      "y"
    ],
    [
      "p",
      "ar"
    ],
    [
      "g",
      "o"
    ],
    [
      "a",
      "bl"
    ],
    [
      "y",
      "st"
    ],
    [
      "ed",
      " to "
    ],
    [
      "d",
      "er"
    ],
    [
      "wa",
      "y"
    ],
    [
      "li",
      "ke "
    ],
    [
      "g",
      "en"
    ],
    [
      "b",
      "et"
    ],
    [
      "o",
      "th"
    ],
    [
      "ed",
      " the "
    ],
    [
      "of",
      " the "
    ],
    [
      "f",
      "er"
    ],
    [
      "at",
      "h"
    ],
    [
      "w",
      "hat "
    ],
    [
      ":",
      "\n\n"
    ],
    [
      "l",
      "y"
    ],
    [
      "b",
      "ec"
    ],
    [
      ": ",
      "\""
    ],
    [
      ". ",
      "It "
    ],
    [
      "am",
      "e "
    ],
    [
      "yst",
      "em"
    ],
    [
      "ag",
      "e "
    ],
    [
      "p",
      "h"
    ],
    [
      "p",
      " "
    ],
    [
      "m",
      "or"
    ],
    [
      "bu",
      "t"
    ],
    [
      "s",
      "u"
    ],
    [
      "ur",
      "e "
    ],
    [
      "p",
      "e"
    ],
    [
      "Ajax",
      " "
    ],
    [
      "a",
      "in"
    ],
    [
      "us",
      "t "
    ],
    [
      "s",
      " and "
    ],
    [
      "for",
      "m"
    ],
    [
      " an",
      " "
    ],
    [
      "f",
      "in"
    ],
    [
      "us",
      "e "
    ],
    [
      "iv",
      "e "
    ],
    [
      "o",
      "x"
    ],
    [
      "h",
      "op"
    ],
    [
      "igh",
      "t "
    ],
    [
      ":\n\n",
      "\""
    ],
    [
      " a",
      "t"
    ],
    [
      "o",
      "t"
    ],
    [
      "igh",
      "t"
    ],
    [
      "--------",
      "--------"
    ],
    [
      "d",
      "i"
    ],
    [
      "it",
      "y "
    ],
    [
      "o",
      "k"
    ],
    [
      "H",
      "e "
    ],
    [
      " abou",
      "t "
    ],
    [
      "s",
      "p"
    ],
    [
      "s",
      "a"
    ],
    [
      "c",
      "l"
    ],
    [
      "c",
      "ould "
    ],
    [
      "h",
      "um"
    ],
    [
      "pl",
      "e "
    ],
    [
      "an",
      "g"
    ],
    [
      "p",
      "os"
    ],
    [
      "m",
      "od"
    ],
    [
      "ox",
      "hop"
    ],
    [
      "E",
      " "
    ],
    [
      "was",
      " a "
    ],
    [
      "ing",
      " the "
    ],
    [
      "s",
      "el"
    ],
    [
      " the",
      "y "
    ],
    [
      "u",
      "st"
    ],
    [
      "d",
      "es"
    ],
    [
      "ha",
      "d"
    ],
    [
      "re",
      "d"
    ],
    [
      "en",
      "d"
    ],
    [
      "'",
      "t "
    ],
    [
      "p",
      "on"
    ],
    [
      "i",
      "z"
    ],
    [
      " th",
      "em"
    ],
    [
      "gen",
      "er"
    ],
    [
      "a",
      "b"
    ],
    [
      "ou",
      "t"
    ],
    [
      "h",
      "is "
    ],
    [
      "you",
      "r"
    ],
    [
      "u",
      "d"
    ],
    [
      "int",
      "er"
    ],
    [
      "m",
      "ess"
    ],
    [
      "c",
      "od"
    ],
    [
      "e t",
      "hat "
    ],
    [
      "ed",
      ", "
    ],
    [
      " al",
      "l"
    ],
    [
      "re",
      "ad"
    ],
    [
      "o",
      "c"
    ],
    [
      "ed",
      ". "
    ],
    [
      "g",
      "a"
    ],
    [
      " a",
      "c"
    ],
    [
      "I",
      " "
    ],
    [
      "ha",
      "r"
    ],
    [
      "in",
      "e "
    ],
    [
      "u",
      "ct"
    ],
    [
      "c",
      "or"
    ],
    [
      "bet",
      "we"
    ],
    [
      "================",
      "================"
    ],
    [
      "all",
      "y "
    ],
    [
      "A",
      "P"
    ],
    [
      "el",
      "l"
    ],
    [
      "e",
      "y "
    ],
    [
      "T",
      "H"
    ],
    [
      "es",
      ", "
    ],
    [
      "p",
      "r"
    ],
    [
      "o",
      "g"
    ],
    [
      " a",
      "t "
    ],
    [
      " t",
      "r"
    ],
    [
      "e",
      "t "
    ],
    [
      "e t",
      "o "
    ],
    [
      "os",
      "t "
    ],
    [
      "con",
      "t"
    ],
    [
      "re",
      "d "
    ],
    [
      " the",
      "ir"
    ],
    [
      "o",
      "b"
    ],
    [
      "channel",
      " "
    ],
    [
      "ig",
      "n"
    ],
    [
      " th",
      "is "
    ],
    [
      "e",
      ","
    ],
    [
      "E",
      "R"
    ],
    [
      "Trav",
      "es "
    ],
    [
      "wor",
      "d"
    ],
    [
      "A",
      " "
    ],
    [
      "r",
      "ough"
    ],
    [
      " c",
      "om"
    ],
    [
      ". ",
      "Th"
    ],
    [
      "sel",
      "f"
    ],
    [
      "o",
      "ol"
    ],
    [
      "j",
      "ust "
    ],
    [
      "ne",
      "w"
    ],
    [
      "or",
      "t"
    ],
    [
      "r",
      "it"
    ],
    [
      "com",
      "m"
    ],
    [
      "at",
      "ed "
    ],
    [
      "enc",
      "e "
    ],
    [
      "--",
      " the "
    ],
    [
      "s",
      "e "
    ],
    [
      "per",
      "s"
    ],
    [
      "v",
      "is"
    ],
    [
      "c",
      "ri"
    ],
    [
      "h",
      "ow"
    ],
    [
      "s",
      " that "
    ],
    [
      "l",
      "ink"
    ],
    [
      "k",
      "now"
    ],
    [
      "c",
      "a"
    ]
  ]
}