{
  "vocab": [
    "<|bos|>",
    "<|eos|>",
    "\n",
    " ",
    "!",
    "\"",
    "#",
    "$",
    "%",
    "&",
    "'",
    "(",
    ")",
    "*",
    "+",
    ",",
    "-",
    ".",
    "/",
    "0",
    "1",
    "2",
    "3",
    "4",
    "5",
    "6",
    "7",
    "8",
    "9",
    ":",
    ";",
    "<",
    "=",
    ">",
    "?",
    "@",
    "A",
    "B",
    "C",
    "D",
    "E",
    "F",
    "G",
    "H",
    "I",
    "J",
    "K",
    "L",
    "M",
    "N",
    "O",
    "P",
    "Q",
    "R",
    "S",
    "T",
    "U",
    "V",
    "W",
    "X",
    "Y",
    "Z",
    "[",
    "]",
    "^",
    "_",
    "a",
    "b",
    "c",
    "d",
    "e",
    "f",
    "g",
    "h",
    "i",
    "j",
    "k",
    "l",
    "m",
    "n",
    "o",
    "p",
    "q",
    "r",
    "s",
    "t",
    "u",
    "v",
    "w",
    "x",
    "y",
    "z",
    "{",
    "|",
    "}",
    "£",
    "©",
    "°",
    "¹",
    "º",
    "½",
    "À",
    "Á",
    "Ä",
    "Æ",
    "Ç",
    "È",
    "É",
    "Ê",
    "Ñ",
    "Ó",
    "Ô",
    "Ú",
    "Ü",
    "à",
    "á",
    "â",
    "ã",
    "ä",
    "æ",
    "ç",
    "è",
    "é",
    "ê",
    "ë",
    "í",
    "î",
    "ï",
    "ñ",
    "ò",
    "ó",
    "ô",
    "õ",
    "ö",
    "ù",
    "ú",
    "û",
    "ü",
    "ý",
    "Œ",
    "œ",
    "Α",
    "Δ",
    "Ε",
    "Η",
    "Θ",
    "Ι",
    "Κ",
    "Μ",
    "Ν",
    "Π",
    "έ",
    "ή",
    "ί",
    "α",
    "β",
    "γ",
    "δ",
    "ε",
    "ζ",
    "η",
    "θ",
    "ι",
    "κ",
    "λ",
    "μ",
    "ν",
    "ο",
    "π",
    "ρ",
    "ς",
    "σ",
    "τ",
    "υ",
    "φ",
    "ό",
    "ϰ",
    "ו",
    "ח",
    "ἀ",
    "ἄ",
    "Ἀ",
    "ἡ",
    "ἰ",
    "ὄ",
    "Ὀ",
    "ά",
    "ὲ",
    "έ",
    "ὶ",
    "ί",
    "ὸ",
    "ό",
    "ύ",
    "ῖ",
    "‎",
    "‏",
    "‐",
    "†",
    "・",
    "e ",
    "th",
    "d ",
    "t ",
    "s ",
    "in",
    ", ",
    "er",
    "an",
    "ou",
    " th",
    "on",
    "en",
    "y ",
    "to",
    "or",
    "ar",
    "ed ",
    "and ",
    "of",
    " h",
    "ing",
    "re",
    ". ",
    " the ",
    " s",
    "ll",
    " a",
    "\n\n",
    "ha",
    " w",
    "is ",
    "es",
    "the ",
    "om",
    "ti",
    "  ",
    "ch",
    "at ",
    "no",
    "as ",
    " m",
    "is",
    "he ",
    "it",
    "to ",
    "el",
    "as",
    "er ",
    ", and ",
    "you",
    "for",
    "le",
    "at",
    "e\n",
    "ing ",
    "gh",
    "be",
    "ith",
    ".\n\n",
    "ow",
    "im",
    "al",
    "ed",
    "of ",
    "ir",
    "wh",
    "ve ",
    "ur",
    "us",
    "os",
    "ver",
    "ac",
    "e, ",
    "ri",
    "li",
    "ld ",
    "em",
    "un",
    " c",
    "it ",
    "ad",
    "was ",
    "ter",
    "a ",
    "ere ",
    "am",
    "le ",
    "st",
    "with",
    "ro",
    "es ",
    "and",
    "ll ",
    "that ",
    "ly ",
    "tion",
    "ut ",
    ",\n",
    "ai",
    "ear",
    "o ",
    "\"\n\n",
    "en ",
    "oo",
    "not ",
    "ain",
    "ay",
    "    ",
    "ent",
    "up",
    "; ",
    "--",
    "ec",
    "ould ",
    "ic",
    " his ",
    " ha",
    "an ",
    "ag",
    "all",
    "'s ",
    "I ",
    "of the ",
    "ak",
    "id",
    "be ",
    "ab",
    "our",
    "had ",
    "s, ",
    "ther",
    " a ",
    "in ",
    "se",
    "ich",
    "fr",
    "his ",
    "oun",
    "res",
    "\"\n\n\"",
    "tr",
    "ough",
    "qu",
    " that ",
    "out ",
    "now",
    "ne",
    "if",
    "ent ",
    "ay ",
    "il",
    "ey ",
    "but ",
    "aid ",
    "igh",
    " wh",
    "com",
    "him",
    "k ",
    ". T",
    "ce ",
    "on ",
    "de",
    "one ",
    "ap",
    "sh",
    "from",
    "ul",
    "ex",
    "y, ",
    "sel",
    "hat ",
    "con",
    "t, ",
    "ol",
    " he ",
    "ell",
    ",\"",
    "in the ",
    "di",
    "t\n",
    "op",
    ". I",
    "pl",
    ".\n\n\"",
    "y\n",
    "do",
    "Mr",
    " him",
    "An",
    "own",
    "her",
    "to the ",
    "you ",
    "per",
    " was ",
    "me ",
    "ev",
    "ation",
    "ce",
    "ted ",
    "self",
    " the\n",
    "are ",
    "der",
    "d, ",
    "lo",
    "ill",
    "ong",
    " with",
    "et ",
    "or ",
    "aw",
    "your",
    "my ",
    " said ",
    "si",
    "um",
    "which",
    "et",
    "she ",
    "and\n",
    " my ",
    ".\n",
    ".\"\n\n\"",
    " and ",
    "av",
    "by ",
    "so",
    "uch",
    " her",
    "bo",
    "go",
    "s\n",
    "And ",
    "pr",
    ". H",
    "very ",
    "dis",
    "have ",
    "eir",
    "pe",
    "par",
    "ed, ",
    "po",
    "were ",
    "know",
    "loo",
    "ep",
    "for ",
    "ess ",
    "man",
    "ut",
    "pos",
    "tw",
    "gr",
    "to s",
    "ame ",
    " have ",
    "fe",
    "'t ",
    "itt",
    " had ",
    "pro",
    "wor",
    "ome ",
    "d\n",
    "ous",
    " I",
    "ten",
    "es, ",
    "ish",
    "tur",
    "ked ",
    "ke ",
    "he",
    "of\n",
    "mor",
    "ang",
    "me",
    "The ",
    " her ",
    "ust ",
    "too",
    "they ",
    "on the ",
    "      ",
    " in",
    " as ",
    "ard",
    "gre",
    "ther ",
    "ad ",
    "to\n",
    "ess",
    "other",
    "Th",
    "ake ",
    "ed\n",
    " at ",
    "st ",
    " this ",
    "bl",
    "br",
    "ed the ",
    "; and ",
    "au",
    "ey",
    "af",
    "ill ",
    "su",
    "ly",
    "ck",
    "would ",
    ". \"",
    "al ",
    "with ",
    "ter ",
    "over",
    "her ",
    "is\n",
    "who",
    "ever",
    "ous ",
    " sh",
    "turn",
    "ight ",
    "the\n",
    "thing",
    "Wh",
    "dr",
    "pres",
    "ach",
    "But ",
    "! ",
    "pp",
    "cl",
    " them",
    "litt",
    "est ",
    " of",
    "ose ",
    "tor",
    "end",
    " to ",
    "any ",
    " she ",
    "ind",
    "fa",
    "gi",
    "ts ",
    ". S",
    "fi",
    " which",
    "ound ",
    "rem",
    "fac",
    "tain",
    "by",
    " am",
    ". The ",
    "them",
    "ast ",
    "oul",
    "ful",
    "ant ",
    ".\"\n\n",
    "to m",
    "pre",
    "like ",
    "this ",
    "sha",
    "anc",
    " their",
    ",\" said ",
    "ed to ",
    "us ",
    "ome",
    "ost ",
    "off",
    "fir",
    "befor",
    "ing\n",
    "down",
    "? ",
    "no ",
    ". Th",
    "ind ",
    "te",
    "ass",
    "goo",
    " all",
    ". He ",
    "You",
    "ing, ",
    "old ",
    "ate ",
    "did ",
    "ought ",
    "Mr. ",
    "s. ",
    " of ",
    "way",
    "we ",
    "little ",
    "ud",
    "ov",
    "able ",
    "your ",
    "des",
    "gl",
    "ade ",
    "str",
    "ow ",
    "arm",
    "long",
    "been",
    "what ",
    "pec",
    "ite ",
    "the s",
    "don",
    "day",
    "ath",
    "ci",
    "e, and ",
    "so ",
    "when",
    "se ",
    "hear",
    "ob",
    "thing ",
    "tim",
    "ant",
    "there ",
    "a s",
    "all ",
    "ack",
    "could ",
    "ple",
    "?\"\n\n\"",
    "as\n",
    "'\n\n",
    "     ",
    "cr",
    "erv",
    "ure",
    ". A",
    "ely ",
    "ure ",
    "ink",
    "ght ",
    "our ",
    "s, and ",
    "been ",
    "tic",
    "at\n",
    "I w",
    "ave ",
    "s and ",
    "fl",
    "ence ",
    "under",
    " se",
    "fri",
    "again",
    "ing the ",
    "sw",
    "only ",
    "ber",
    "car",
    "gn",
    "ef",
    "do ",
    ",'",
    "ion",
    "to be ",
    "new",
    " they ",
    "ty ",
    "sid",
    "its ",
    "look",
    "aus",
    "ick",
    "time ",
    "ance ",
    "plac",
    "!\"",
    " me",
    "before ",
    "co",
    "a\n",
    "beg",
    "ese ",
    " a s",
    " to",
    "ble ",
    "No",
    ", s",
    "ity ",
    " re",
    " con",
    "ge",
    "He ",
    "ord",
    "come ",
    "room",
    "uc",
    "though",
    "other ",
    "I s",
    "en, ",
    "from ",
    "ard ",
    "read",
    "ally ",
    "ra",
    "ine ",
    "th ",
    "upon",
    ";\n",
    "it was ",
    "more ",
    "for the ",
    "s of ",
    "vi",
    "est",
    " mor",
    "in\n",
    "e. ",
    "sai",
    "we",
    "coun",
    "if ",
    "tri",
    "good ",
    "?\"",
    "I am",
    "of his ",
    "from the ",
    "ast",
    ": ",
    "ge ",
    "I c",
    "ke",
    "hand",
    "most ",
    "by the ",
    "their",
    "er, ",
    "great ",
    " so",
    "tak",
    "end ",
    " me ",
    "sti",
    " man",
    "has ",
    "por",
    "n ",
    "made ",
    "le, ",
    " what ",
    "bre",
    "fer",
    "ing a",
    "vo",
    "gain",
    "ull",
    "rough",
    "; but ",
    ". It ",
    "came ",
    "inc",
    "tre",
    "ati",
    "ound",
    "ed in",
    "of s",
    "will ",
    "ed him",
    "What ",
    "ng",
    "ight",
    " as",
    ", but ",
    "eli",
    "bro",
    "son",
    "young",
    "about ",
    "air",
    "ed to",
    "enc",
    "ile ",
    "I'",
    "some ",
    "uch ",
    "take ",
    "form",
    "at the ",
    "out",
    "age ",
    "which ",
    "Mar",
    "after",
    ",\nand ",
    "how",
    "Mis",
    "first ",
    "it, ",
    "bu",
    "oll",
    " a\n",
    "even",
    "any",
    "n't ",
    "cc",
    "ark",
    "ver ",
    "ip",
    "gent",
    "inter",
    "I have ",
    ".\n\n'",
    "pli",
    "seem",
    "said ",
    "peop",
    "he had ",
    "'\n\n'",
    "rec",
    " their ",
    "augh",
    "fec",
    "mon",
    "ers ",
    "well",
    "ness ",
    "Go",
    "ated ",
    " hear",
    " with ",
    ", the ",
    "caus",
    "sm",
    "gu",
    "he was ",
    "Ar",
    "den",
    "tow",
    "ee ",
    "ack ",
    "tal",
    "with the ",
    "then",
    "when ",
    "lif",
    ", as ",
    " he",
    "pleas",
    "you w",
    "ght",
    "don't ",
    "lef",
    "every ",
    "pass",
    "jo",
    "ist",
    "looked ",
    "let ",
    "e and ",
    "tt",
    " we ",
    "\nthe ",
    "a m",
    "iv",
    "I\n",
    "self ",
    "some",
    "app",
    "day ",
    ".  ",
    "ail",
    "ew",
    "' ",
    "sp",
    "answ",
    "tter",
    " com",
    "dear",
    "sion",
    "go ",
    "ven",
    "where ",
    "way ",
    "cha",
    "serv",
    "peak",
    "arri",
    "dre",
    "e.\n\n",
    "lad",
    "e's ",
    "arr",
    "It ",
    ". But ",
    "s of",
    " sha",
    "a, ",
    "t's ",
    " ab",
    " st",
    "Miss ",
    "ice ",
    "put ",
    "tru",
    "feel",
    "give ",
    "and, ",
    "ed and ",
    "went ",
    "ble",
    "just ",
    "lov",
    "should ",
    "ity",
    "orn",
    "cer",
    "ree ",
    "him ",
    " his\n",
    "year",
    "bod",
    "tell",
    "ph",
    "hous",
    "cour",
    "ed his ",
    "atch",
    "eng",
    "chil",
    "in his ",
    "get ",
    "it is ",
    "an\n",
    "de ",
    "door",
    "without ",
    "ly, ",
    "back",
    ", that ",
    "ub",
    "two ",
    "pri",
    "f ",
    "dec",
    ", and the ",
    "jec",
    "e,\n",
    "might ",
    "was\n",
    "mis",
    "own ",
    ".\n\nThe ",
    "ise ",
    "ing s",
    "Ch",
    "ush",
    "a c",
    "On",
    "Fr",
    " again",
    "two",
    "less ",
    " more ",
    "ash",
    "ar ",
    ", \"",
    "men",
    " wor",
    "We ",
    " al",
    "must ",
    "ing to ",
    "min",
    "ious ",
    "happ",
    "hav",
    "poin",
    "friend",
    "old",
    "fort",
    "never",
    "liv",
    "never ",
    "Well",
    "cap",
    ".\n\nAnd ",
    "of th",
    "did not ",
    "say",
    " a m",
    "will",
    "left ",
    "got ",
    ". I ",
    "last ",
    "vis",
    "ment",
    "ink ",
    "Mrs. ",
    "father",
    "ed, and ",
    "can",
    "eas",
    "tin",
    "bur",
    "?\n\n",
    "tion ",
    "mer",
    "My ",
    "I was ",
    "ing his ",
    "ways ",
    " should ",
    "cause ",
    "cre",
    "eyes ",
    "mo",
    "found ",
    "he\n",
    "open",
    "gg",
    "es\n",
    "ary ",
    "gen",
    "up ",
    "that",
    "than",
    "lar",
    "it\n",
    "hel",
    "shall ",
    "ly\n",
    "h, ",
    "fel",
    "thou",
    "near",
    "answer",
    "gentle",
    "who ",
    "ed by ",
    "able",
    "atter",
    "fin",
    "tu",
    "e of ",
    "fic",
    "yself",
    "in a ",
    "foll",
    "ence",
    "beli",
    "return",
    "row",
    "ign",
    "into",
    "you, ",
    "s the ",
    "quite ",
    " him ",
    "wr",
    "pi",
    "ton",
    "may ",
    "man ",
    "inn",
    ".\"",
    "king",
    "foo",
    "az",
    "pur",
    " were ",
    "ince ",
    "call",
    " some ",
    "emp",
    "cri",
    " ad",
    "dres",
    "ee",
    "comp",
    "ed with",
    " a c",
    "knew",
    "ook",
    "t of ",
    ". She ",
    ",' said ",
    "appear",
    "ings ",
    "ater",
    "of the\n",
    "of m",
    "oman",
    "te ",
    " there ",
    "ful ",
    "occ",
    " the s",
    "their ",
    "ting",
    "ting ",
    "es, and ",
    "fam",
    "of a ",
    "\n      ",
    "dou",
    "word",
    "ation ",
    "nat",
    ".\n\nA",
    "qui",
    "back ",
    "In",
    "hap",
    "You ",
    "keep",
    "bri",
    "I m",
    "nec",
    "s,\n",
    "char",
    "del",
    "tly ",
    "comm",
    "every",
    "being ",
    "into the ",
    "yet ",
    " would ",
    "ed that ",
    "people ",
    "said, ",
    "enough",
    " af",
    "through",
    "'s\n",
    "id ",
    "betw",
    "s of the ",
    ", he ",
    "cur",
    "En",
    "ank",
    "\n\n\"",
    " ac",
    ",\" ",
    "low",
    "Mr ",
    "ever ",
    "ue ",
    "because ",
    "one",
    "possi",
    "head",
    "ess, ",
    "ily ",
    "ris",
    "dif",
    "told ",
    "night",
    "once ",
    "full",
    "lear",
    "betwe",
    " who",
    "to him",
    "follow",
    "be\n",
    "ide ",
    "ould",
    "'d ",
    "face ",
    "efor",
    "hor",
    ". And ",
    "reas",
    "did",
    "imp",
    "felt ",
    "ques",
    "ond ",
    "tood ",
    "re ",
    " he had ",
    "iz",
    "till",
    "til",
    "inst",
    "took",
    "cep",
    "far",
    "while ",
    "I had ",
    " think",
    "not\n",
    "Jo",
    "than ",
    "nothing ",
    "ty",
    "even ",
    "sed ",
    "fell",
    " these ",
    "hal",
    "ance",
    ", and\n",
    ".'\n\n'",
    "ward",
    "that\n",
    "the m",
    "cons",
    "enter",
    "For",
    "sur",
    "That ",
    "sto",
    "in s",
    "ir ",
    "pris",
    "morn",
    "chi",
    " hand",
    "not",
    "She ",
    "time",
    "plain",
    "ouse",
    "irl",
    "bus",
    "had\n",
    ",\" he ",
    "now ",
    "fear",
    "each",
    " about ",
    "beh",
    "such",
    "light ",
    "giv",
    "pas",
    "OR",
    "spo",
    "few",
    " at the ",
    "with a ",
    ". '",
    "and the ",
    "exc",
    "ried ",
    "ile",
    "of my ",
    "fur",
    "lic",
    "att",
    "rel",
    " hav",
    "much",
    "dist",
    "ently ",
    "ide",
    " which ",
    "ship",
    "for\n",
    "saw",
    "gave ",
    "upon the ",
    "always ",
    "selv",
    "turned ",
    "ould\n",
    "ment ",
    "y, and ",
    "is, ",
    " all ",
    "to see ",
    "ness",
    "head ",
    "you\n",
    "e--",
    "a w",
    "chang",
    "hand ",
    "ry ",
    "draw",
    "clo",
    "another",
    "ig",
    "thy ",
    "laugh",
    "find ",
    "led ",
    "on, ",
    "s.\n\n",
    "doub",
    "mom",
    "see ",
    "the",
    "round ",
    "nothing",
    "sk",
    ".\" ",
    "aster",
    "king ",
    "sor",
    "; \"",
    "stre",
    "person",
    "ere\n",
    "itch",
    "to his ",
    "ho",
    "body ",
    "nex",
    "ay, ",
    "then ",
    "sup",
    "love ",
    "ies ",
    "ait",
    "ORD",
    "I am ",
    "girl",
    "ix",
    "place ",
    ". B",
    "LORD",
    "cas",
    "This ",
    "himself",
    "nam",
    "bes",
    "tro",
    "ather",
    " that",
    "s were ",
    "tend",
    "port",
    "down ",
    "night ",
    "gener",
    "ceiv",
    "m ",
    "remain",
    "done ",
    "sion ",
    "ah",
    "!\"\n\n",
    "brought ",
    "ready ",
    " could ",
    "ent, ",
    "his\n",
    "toge",
    "wind",
    "expres",
    "ember",
    "pic",
    "stand",
    "ition",
    "right ",
    "pect",
    "pow",
    "inde",
    "p ",
    "uf",
    "on\n",
    "was",
    "tter ",
    "Pr",
    "heard ",
    "sub",
    "law",
    "e-",
    ",--",
    "s that ",
    "ion ",
    "against ",
    "all the ",
    "them ",
    "thought ",
    " much",
    "sec",
    "leep",
    "death",
    "said",
    "question",
    "uck",
    ". Wh",
    "ed her",
    "!\"\n\n\"",
    "Qu",
    "duc",
    "ond",
    " repli",
    "sider",
    "es and ",
    "sen",
    "tain ",
    "make ",
    "With",
    ".\n\nTh",
    "led",
    "here ",
    "ann",
    "ung",
    "ing and ",
    "began ",
    "long ",
    "quir",
    "onder",
    "wal",
    "on his ",
    "lin",
    ". It was ",
    "still",
    "hat",
    "wif",
    " has ",
    "ere",
    "ister",
    "know ",
    " so ",
    "ench",
    "ood",
    "val",
    "these ",
    "childr",
    "on't ",
    "upon ",
    "conf",
    "young ",
    "star",
    " her\n",
    "me, ",
    "th, ",
    "mean",
    "times ",
    " than",
    "ow, ",
    "reg",
    "ish ",
    "direc",
    ". They ",
    "le\n",
    "ask",
    "stood ",
    " see ",
    "ouch",
    "utter",
    "cho",
    "house",
    "ither",
    "light",
    "land",
    "sc",
    "run",
    "pen",
    "s--",
    "can ",
    "over ",
    "ular",
    "ve",
    "you m",
    "ref",
    "good",
    "you are ",
    "od",
    "lik",
    "dro",
    "life ",
    "en the ",
    "aim",
    "ed at ",
    "in the\n",
    "Well, ",
    " thought ",
    "pain",
    "whole ",
    "bar",
    "y and ",
    "that the ",
    ". In",
    "is the ",
    "mak",
    "eve ",
    ". There ",
    "house ",
    "vers",
    "nor",
    "ed a ",
    "St",
    "fortun",
    "isten",
    "leave ",
    "acc",
    "vel",
    "s to ",
    "cover",
    "could not ",
    "med",
    " himself",
    "tinu",
    "\n     ",
    " can",
    "enti",
    "think",
    "du",
    "a h",
    " that\n",
    "prom",
    "hon",
    " will ",
    "fre",
    "to make ",
    "better",
    "om ",
    "would be ",
    "fair",
    "voic",
    "tom",
    "! I",
    "ins",
    "ru",
    ", sir",
    "perhap",
    "name ",
    "part ",
    "until",
    "God ",
    "order",
    " all the ",
    "et, ",
    "was a ",
    "Mon",
    "mad",
    "Yes, ",
    "shall",
    "both",
    "bel",
    "; the ",
    "letter",
    "by\n",
    "took ",
    "ace ",
    " through",
    "lor",
    "sir",
    "amp",
    " them ",
    "al\n",
    "en\n",
    "that he ",
    "ing-",
    "irc",
    "..",
    "tell ",
    "would have ",
    "going ",
    " say",
    " think ",
    "into ",
    "it's ",
    "side ",
    " those ",
    "break",
    "ys",
    "away ",
    "agn",
    ", who",
    "next ",
    "sil",
    "es of ",
    "in my ",
    "daugh",
    "speak",
    "red ",
    "ate",
    "out\n",
    " than ",
    "ward ",
    "ing that ",
    "ros",
    "rest",
    "dark",
    ". N",
    "of\nthe ",
    "fall",
    "Cap",
    "use ",
    " thy ",
    "ale",
    "you have ",
    "t, and ",
    "Oh, ",
    "I don't ",
    "bed",
    "se, ",
    "look ",
    "ence, ",
    "ing a ",
    "time, ",
    "life",
    "war",
    "lip",
    ".'\n\n",
    "?\"\n\n",
    "ed in ",
    "she had ",
    "iness ",
    "adv",
    "el ",
    "of her ",
    "ement",
    "dar",
    "observ",
    "I should ",
    "one, ",
    "certain",
    "cor",
    "prov",
    "iti",
    " with the ",
    "ye ",
    "clos",
    "high",
    "to have ",
    "another ",
    "part",
    "hat's ",
    "for a ",
    "drew",
    "with\n",
    "she was ",
    "usb",
    "dear ",
    "mother",
    "To",
    "mar",
    "among",
    "how ",
    "or\n",
    "eer",
    "add",
    "ished ",
    "ry",
    "present",
    "try",
    "ity, ",
    "ement ",
    "brother",
    " a w",
    "efore ",
    "together",
    "ept ",
    "ive ",
    "strang",
    "set ",
    "pose ",
    "bit",
    "ing at ",
    ", which",
    "los",
    "o'",
    "same ",
    "bear",
    "I sha",
    "is a ",
    "bloo",
    "try ",
    " he\n",
    "hum",
    "'ll ",
    "three ",
    "fu",
    "A ",
    "There ",
    "myself",
    ". D",
    "with his ",
    ":\n",
    "but\n",
    "mov",
    "Gr",
    "great",
    "ceed",
    "red",
    " though",
    "jud",
    "hop",
    "ance, ",
    "tch",
    ".]",
    " str",
    "I will ",
    "Engl",
    "many ",
    "pap",
    "as he ",
    "remember",
    "had been",
    "an a",
    "quar",
    "ser",
    "ham",
    "ing, and ",
    "ed her ",
    "kind",
    "ously ",
    ". You",
    ",\" said the ",
    "I can",
    "ither ",
    "idd",
    "dri",
    "nigh",
    "half",
    "believe ",
    " me, ",
    "toward",
    "ad\n",
    ", I ",
    "get",
    "les ",
    "eth",
    "gentleman",
    ". This ",
    "ool",
    "too ",
    "Lor",
    "eld",
    "reach",
    "to her",
    "y's ",
    "eg",
    "? I",
    "!\n\n",
    "to w",
    "does ",
    "still ",
    "claim",
    "worl",
    "ed it ",
    "first",
    "consider",
    " such",
    "ans",
    "They ",
    "und",
    "is not ",
    "poor ",
    "mann",
    "er and ",
    "tear",
    "there was ",
    "ood ",
    "sol",
    "--and ",
    "us, ",
    "almost ",
    "perfec",
    "prof",
    "jus",
    "say ",
    "sud",
    "those ",
    "undr",
    "to me ",
    "each ",
    "you know",
    "ately ",
    "woman",
    "vic",
    " hop",
    "lay ",
    "leav",
    "ck ",
    "stand ",
    "step",
    "trem",
    "well ",
    "one\n",
    "gone ",
    "suf",
    " shall ",
    "ouldn't ",
    "ili",
    "ste",
    "view",
    "!\n",
    "to do",
    " asked ",
    "had been ",
    "gar",
    "ing m",
    "work",
    " he was ",
    "!\" ",
    "deep",
    "!\" said ",
    "ctor",
    "usu",
    "behind ",
    "ation, ",
    "Let ",
    "over the ",
    "four",
    "best ",
    "I could ",
    " how",
    "soon",
    "however",
    "bey",
    "atis",
    "if I",
    "play",
    "away",
    "ed with ",
    "fellow",
    "objec",
    "till ",
    "differ",
    "ing him",
    "touch",
    " the",
    "dress",
    "rep",
    " when",
    " hour",
    "whe",
    "kind ",
    "bor",
    "trac",
    "ed.\n\n\"",
    "As ",
    " a h",
    "cal",
    " cried ",
    " of the ",
    ". M",
    "e.\n\n\"",
    "?\n",
    "y-",
    "natur",
    "aid",
    "wom",
    "proach",
    "though ",
    "trou",
    "ably ",
    "Per",
    "really ",
    "ot",
    "necess",
    "selves ",
    "of them",
    "t and ",
    "partic",
    "pal",
    "s.\n",
    "position",
    " we",
    "to the\n",
    ",\" she ",
    "of this ",
    "cont",
    "book",
    "looking ",
    "out of the ",
    "leg",
    "aven",
    "ent\n",
    "ants ",
    "Not ",
    "Is",
    "col",
    "ma",
    "bow",
    "Joh",
    "God",
    "er\n",
    "flo",
    "to me",
    "ed me ",
    "spir",
    "the same ",
    "offic",
    "out, ",
    "ber ",
    "occas",
    ". On",
    "ing her",
    "full ",
    " after",
    "'re ",
    ",\nAnd ",
    ".\n\nS",
    "ers, ",
    "ely",
    "here",
    "inv",
    "there",
    "imag",
    "!'",
    "kept ",
    "ek",
    "friend ",
    "son ",
    "were\n",
    ", my ",
    "circ",
    "auti",
    "whose ",
    "men ",
    "Oh",
    "wait",
    "e, \"",
    "dem",
    "chief",
    "Com",
    " replied ",
    "compan",
    "window",
    "five ",
    "twent",
    "if he ",
    "receiv",
    "aun",
    "in, ",
    "medi",
    "better ",
    "fire",
    "ery ",
    "not be ",
    " thou",
    "thr",
    "seemed ",
    "To ",
    "outh",
    " many ",
    "t the ",
    "sudden",
    "watch",
    "stair",
    "anted ",
    "ligh",
    "tention",
    "word ",
    "reco",
    "ost",
    " some",
    "as the ",
    "'t",
    "ere, ",
    "master",
    "'Ar",
    "to my ",
    "shor",
    "door ",
    "of her",
    "ted",
    "Mr. B",
    "ate, ",
    "peri",
    "known",
    "\nand ",
    " whom",
    "Yes",
    "fav",
    "present ",
    "ed for",
    "sat ",
    "dg",
    "my\n",
    "offer",
    "they were ",
    "cle",
    "lec",
    "land ",
    "do not ",
    "hour",
    " app",
    "in this ",
    "agg",
    " mean",
    "voice "
  ],
  "merges": [
    [
      "e",
      " "
    ],
    [
      "t",
      "h"
    ],
    [
      "d",
      " "
    ],
    [
      "t",
      " "
    ],
    [
      "s",
      " "
    ],
    [
      "i",
      "n"
    ],
    [
      ",",
      " "
    ],
    [
      "e",
      "r"
    ],
    [
      "a",
      "n"
    ],
    [
      "o",
      "u"
    ],
    [
      " ",
      "th"
    ],
    [
      "o",
      "n"
    ],
    [
      "e",
      "n"
    ],
    [
      "y",
      " "
    ],
    [
      "t",
      "o"
    ],
    [
      "o",
      "r"
    ],
    [
      "a",
      "r"
    ],
    [
      "e",
      "d "
    ],
    [
      "an",
      "d "
    ],
    [
      "o",
      "f"
    ],
    [
      " ",
      "h"
    ],
    [
      "in",
      "g"
    ],
    [
      "r",
      "e"
    ],
    [
      ".",
      " "
    ],
    [
      " th",
      "e "
    ],
    [
      " ",
      "s"
    ],
    [
      "l",
      "l"
    ],
    [
      " ",
      "a"
    ],
    [
      "\n",
      "\n"
    ],
    [
      "h",
      "a"
    ],
    [
      " ",
      "w"
    ],
    [
      "i",
      "s "
    ],
    [
      "e",
      "s"
    ],
    [
      "th",
      "e "
    ],
    [
      "o",
      "m"
    ],
    [
      "t",
      "i"
    ],
    [
      " ",
      " "
    ],
    [
      "c",
      "h"
    ],
    [
      "a",
      "t "
    ],
    [
      "n",
      "o"
    ],
    [
      "a",
      "s "
    ],
    [
      " ",
      "m"
    ],
    [
      "i",
      "s"
    ],
    [
      "h",
      "e "
    ],
    [
      "i",
      "t"
    ],
    [
      "to",
      " "
    ],
    [
      "e",
      "l"
    ],
    [
      "a",
      "s"
    ],
    [
      "er",
      " "
    ],
    [
      ", ",
      "and "
    ],
    [
      "y",
      "ou"
    ],
    [
      "f",
      "or"
    ],
    [
      "l",
      "e"
    ],
    [
      "a",
      "t"
    ],
    [
      "e",
      "\n"
    ],
    [
      "ing",
      " "
    ],
    [
      "g",
      "h"
    ],
    [
      "b",
      "e"
    ],
    [
      "i",
      "th"
    ],
    [
      ".",
      "\n\n"
    ],
    [
      "o",
      "w"
    ],
    [
      "i",
      "m"
    ],
    [
      "a",
      "l"
    ],
    [
      "e",
      "d"
    ],
    [
      "of",
      " "
    ],
    [
      "i",
      "r"
    ],
    [
      "w",
      "h"
    ],
    [
      "v",
      "e "
    ],
    [
      "u",
      "r"
    ],
    [
      "u",
      "s"
    ],
    [
      "o",
      "s"
    ],
    [
      "v",
      "er"
    ],
    [
      "a",
      "c"
    ],
    [
      "e",
      ", "
    ],
    [
      "r",
      "i"
    ],
    [
      "l",
      "i"
    ],
    [
      "l",
      "d "
    ],
    [
      "e",
      "m"
    ],
    [
      "u",
      "n"
    ],
    [
      " ",
      "c"
    ],
    [
      "i",
      "t "
    ],
    [
      "a",
      "d"
    ],
    [
      "w",
      "as "
    ],
    [
      "t",
      "er"
    ],
    [
      "a",
      " "
    ],
    [
      "er",
      "e "
    ],
    [
      "a",
      "m"
    ],
    [
      "l",
      "e "
    ],
    [
      "s",
      "t"
    ],
    [
      "w",
      "ith"
    ],
    [
      "r",
      "o"
    ],
    [
      "e",
      "s "
    ],
    [
      "an",
      "d"
    ],
    [
      "ll",
      " "
    ],
    [
      "th",
      "at "
    ],
    [
      "l",
      "y "
    ],
    [
      "ti",
      "on"
    ],
    [
      "u",
      "t "
    ],
    [
      ",",
      "\n"
    ],
    [
      "a",
      "i"
    ],
    [
      "e",
      "ar"
    ],
    [
      "o",
      " "
    ],
    [
      "\"",
      "\n\n"
    ],
    [
      "en",
      " "
    ],
    [
      "o",
      "o"
    ],
    [
      "no",
      "t "
    ],
    [
      "a",
      "in"
    ],
    [
      "a",
      "y"
    ],
    [
      "  ",
      "  "
    ],
    [
      "en",
      "t"
    ],
    [
      "u",
      "p"
    ],
    [
      ";",
      " "
    ],
    [
      "-",
      "-"
    ],
    [
      "e",
      "c"
    ],
    [
      "ou",
      "ld "
    ],
    [
      "i",
      "c"
    ],
    [
      " h",
      "is "
    ],
    [
      " h",
      "a"
    ],
    [
      "an",
      " "
    ],
    [
      "a",
      "g"
    ],
    [
      "a",
      "ll"
    ],
    [
      "'",
      "s "
    ],
    [
      "I",
      " "
    ],
    [
      "of",
      " the "
    ],
    [
      "a",
      "k"
    ],
    [
      "i",
      "d"
    ],
    [
      "b",
      "e "
    ],
    [
      "a",
      "b"
    ],
    [
      "ou",
      "r"
    ],
    [
      "ha",
      "d "
    ],
    [
      "s",
      ", "
    ],
    [
      "th",
      "er"
    ],
    [
      " a",
      " "
    ],
    [
      "in",
      " "
    ],
    [
      "s",
      "e"
    ],
    [
      "i",
      "ch"
    ],
    [
      "f",
      "r"
    ],
    [
      "h",
      "is "
    ],
    [
      "ou",
      "n"
    ],
    [
      "re",
      "s"
    ],
    [
      "\"\n\n",
      "\""
    ],
    [
      "t",
      "r"
    ],
    [
      "ou",
      "gh"
    ],
    [
      "q",
      "u"
    ],
    [
      " th",
      "at "
    ],
    [
      "ou",
      "t "
    ],
    [
      "no",
      "w"
    ],
    [
      "n",
      "e"
    ],
    [
      "i",
      "f"
    ],
    [
      "en",
      "t "
    ],
    [
      "a",
      "y "
    ],
    [
      "i",
      "l"
    ],
    [
      "e",
      "y "
    ],
    [
      "b",
      "ut "
    ],
    [
      "ai",
      "d "
    ],
    [
      "i",
      "gh"
    ],
    [
      " w",
      "h"
    ],
    [
      "c",
      "om"
    ],
    [
      "h",
      "im"
    ],
    [
      "k",
      " "
    ],
    [
      ". ",
      "T"
    ],
    [
      "c",
      "e "
    ],
    [
      "on",
      " "
    ],
    [
      "d",
      "e"
    ],
    [
      "on",
      "e "
    ],
    [
      "a",
      "p"
    ],
    [
      "s",
      "h"
    ],
    [
      "fr",
      "om"
    ],
    [
      "u",
      "l"
    ],
    [
      "e",
      "x"
    ],
    [
      "y",
      ", "
    ],
    [
      "s",
      "el"
    ],
    [
      "ha",
      "t "
    ],
    [
      "c",
      "on"
    ],
    [
      "t",
      ", "
    ],
    [
      "o",
      "l"
    ],
    [
      " h",
      "e "
    ],
    [
      "e",
      "ll"
    ],
    [
      ",",
      "\""
    ],
    [
      "in",
      " the "
    ],
    [
      "d",
      "i"
    ],
    [
      "t",
      "\n"
    ],
    [
      "o",
      "p"
    ],
    [
      ". ",
      "I"
    ],
    [
      "p",
      "l"
    ],
    [
      ".\n\n",
      "\""
    ],
    [
      "y",
      "\n"
    ],
    [
      "d",
      "o"
    ],
    [
      "M",
      "r"
    ],
    [
      " h",
      "im"
    ],
    [
      "A",
      "n"
    ],
    [
      "ow",
      "n"
    ],
    [
      "h",
      "er"
    ],
    [
      "to",
      " the "
    ],
    [
      "you",
      " "
    ],
    [
      "p",
      "er"
    ],
    [
      " w",
      "as "
    ],
    [
      "m",
      "e "
    ],
    [
      "e",
      "v"
    ],
    [
      "a",
      "tion"
    ],
    [
      "c",
      "e"
    ],
    [
      "t",
      "ed "
    ],
    [
      "sel",
      "f"
    ],
    [
      " th",
      "e\n"
    ],
    [
      "ar",
      "e "
    ],
    [
      "d",
      "er"
    ],
    [
      "d",
      ", "
    ],
    [
      "l",
      "o"
    ],
    [
      "i",
      "ll"
    ],
    [
      "on",
      "g"
    ],
    [
      " w",
      "ith"
    ],
    [
      "e",
      "t "
    ],
    [
      "or",
      " "
    ],
    [
      "a",
      "w"
    ],
    [
      "you",
      "r"
    ],
    [
      "m",
      "y "
    ],
    [
      " s",
      "aid "
    ],
    [
      "s",
      "i"
    ],
    [
      "u",
      "m"
    ],
    [
      "wh",
      "ich"
    ],
    [
      "e",
      "t"
    ],
    [
      "s",
      "he "
    ],
    [
      "and",
      "\n"
    ],
    [
      " m",
      "y "
    ],
    [
      ".",
      "\n"
    ],
    [
      ".",
      "\"\n\n\""
    ],
    [
      " ",
      "and "
    ],
    [
      "a",
      "v"
    ],
    [
      "b",
      "y "
    ],
    [
      "s",
      "o"
    ],
    [
      "u",
      "ch"
    ],
    [
      " h",
      "er"
    ],
    [
      "b",
      "o"
    ],
    [
      "g",
      "o"
    ],
    [
      "s",
      "\n"
    ],
    [
      "An",
      "d "
    ],
    [
      "p",
      "r"
    ],
    [
      ". ",
      "H"
    ],
    [
      "ver",
      "y "
    ],
    [
      "d",
      "is"
    ],
    [
      "ha",
      "ve "
    ],
    [
      "e",
      "ir"
    ],
    [
      "p",
      "e"
    ],
    [
      "p",
      "ar"
    ],
    [
      "ed",
      ", "
    ],
    [
      "p",
      "o"
    ],
    [
      "w",
      "ere "
    ],
    [
      "k",
      "now"
    ],
    [
      "l",
      "oo"
    ],
    [
      "e",
      "p"
    ],
    [
      "for",
      " "
    ],
    [
      "es",
      "s "
    ],
    [
      "m",
      "an"
    ],
    [
      "u",
      "t"
    ],
    [
      "p",
      "os"
    ],
    [
      "t",
      "w"
    ],
    [
      "g",
      "r"
    ],
    [
      "to",
      " s"
    ],
    [
      "am",
      "e "
    ],
    [
      " ha",
      "ve "
    ],
    [
      "f",
      "e"
    ],
    [
      "'",
      "t "
    ],
    [
      "it",
      "t"
    ],
    [
      " ha",
      "d "
    ],
    [
      "p",
      "ro"
    ],
    [
      "w",
      "or"
    ],
    [
      "om",
      "e "
    ],
    [
      "d",
      "\n"
    ],
    [
      "ou",
      "s"
    ],
    [
      " ",
      "I"
    ],
    [
      "t",
      "en"
    ],
    [
      "es",
      ", "
    ],
    [
      "is",
      "h"
    ],
    [
      "t",
      "ur"
    ],
    [
      "k",
      "ed "
    ],
    [
      "k",
      "e "
    ],
    [
      "h",
      "e"
    ],
    [
      "of",
      "\n"
    ],
    [
      "m",
      "or"
    ],
    [
      "an",
      "g"
    ],
    [
      "m",
      "e"
    ],
    [
      "T",
      "he "
    ],
    [
      " h",
      "er "
    ],
    [
      "us",
      "t "
    ],
    [
      "to",
      "o"
    ],
    [
      "th",
      "ey "
    ],
    [
      "on",
      " the "
    ],
    [
      "    ",
      "  "
    ],
    [
      " ",
      "in"
    ],
    [
      " a",
      "s "
    ],
    [
      "ar",
      "d"
    ],
    [
      "g",
      "re"
    ],
    [
      "th",
      "er "
    ],
    [
      "a",
      "d "
    ],
    [
      "to",
      "\n"
    ],
    [
      "es",
      "s"
    ],
    [
      "o",
      "ther"
    ],
    [
      "T",
      "h"
    ],
    [
      "ak",
      "e "
    ],
    [
      "ed",
      "\n"
    ],
    [
      " a",
      "t "
    ],
    [
      "s",
      "t "
    ],
    [
      " th",
      "is "
    ],
    [
      "b",
      "l"
    ],
    [
      "b",
      "r"
    ],
    [
      "ed ",
      "the "
    ],
    [
      "; ",
      "and "
    ],
    [
      "a",
      "u"
    ],
    [
      "e",
      "y"
    ],
    [
      "a",
      "f"
    ],
    [
      "i",
      "ll "
    ],
    [
      "s",
      "u"
    ],
    [
      "l",
      "y"
    ],
    [
      "c",
      "k"
    ],
    [
      "w",
      "ould "
    ],
    [
      ". ",
      "\""
    ],
    [
      "al",
      " "
    ],
    [
      "with",
      " "
    ],
    [
      "t",
      "er "
    ],
    [
      "o",
      "ver"
    ],
    [
      "h",
      "er "
    ],
    [
      "is",
      "\n"
    ],
    [
      "wh",
      "o"
    ],
    [
      "e",
      "ver"
    ],
    [
      "ou",
      "s "
    ],
    [
      " s",
      "h"
    ],
    [
      "tur",
      "n"
    ],
    [
      "igh",
      "t "
    ],
    [
      "th",
      "e\n"
    ],
    [
      "th",
      "ing"
    ],
    [
      "W",
      "h"
    ],
    [
      "d",
      "r"
    ],
    [
      "p",
      "res"
    ],
    [
      "a",
      "ch"
    ],
    [
      "B",
      "ut "
    ],
    [
      "!",
      " "
    ],
    [
      "p",
      "p"
    ],
    [
      "c",
      "l"
    ],
    [
      " th",
      "em"
    ],
    [
      "l",
      "itt"
    ],
    [
      "es",
      "t "
    ],
    [
      " ",
      "of"
    ],
    [
      "os",
      "e "
    ],
    [
      "to",
      "r"
    ],
    [
      "en",
      "d"
    ],
    [
      " ",
      "to "
    ],
    [
      "an",
      "y "
    ],
    [
      " s",
      "he "
    ],
    [
      "in",
      "d"
    ],
    [
      "f",
      "a"
    ],
    [
      "g",
      "i"
    ],
    [
      "t",
      "s "
    ],
    [
      ". ",
      "S"
    ],
    [
      "f",
      "i"
    ],
    [
      " wh",
      "ich"
    ],
    [
      "oun",
      "d "
    ],
    [
      "re",
      "m"
    ],
    [
      "f",
      "ac"
    ],
    [
      "t",
      "ain"
    ],
    [
      "b",
      "y"
    ],
    [
      " a",
      "m"
    ],
    [
      ". T",
      "he "
    ],
    [
      "th",
      "em"
    ],
    [
      "as",
      "t "
    ],
    [
      "ou",
      "l"
    ],
    [
      "f",
      "ul"
    ],
    [
      "an",
      "t "
    ],
    [
      ".",
      "\"\n\n"
    ],
    [
      "to",
      " m"
    ],
    [
      "p",
      "re"
    ],
    [
      "li",
      "ke "
    ],
    [
      "th",
      "is "
    ],
    [
      "s",
      "ha"
    ],
    [
      "an",
      "c"
    ],
    [
      " th",
      "eir"
    ],
    [
      ",\"",
      " said "
    ],
    [
      "ed ",
      "to "
    ],
    [
      "u",
      "s "
    ],
    [
      "om",
      "e"
    ],
    [
      "os",
      "t "
    ],
    [
      "of",
      "f"
    ],
    [
      "f",
      "ir"
    ],
    [
      "be",
      "for"
    ],
    [
      "ing",
      "\n"
    ],
    [
      "d",
      "own"
    ],
    [
      "?",
      " "
    ],
    [
      "no",
      " "
    ],
    [
      ". T",
      "h"
    ],
    [
      "in",
      "d "
    ],
    [
      "t",
      "e"
    ],
    [
      "as",
      "s"
    ],
    [
      "g",
      "oo"
    ],
    [
      " a",
      "ll"
    ],
    [
      ". H",
      "e "
    ],
    [
      "Y",
      "ou"
    ],
    [
      "ing",
      ", "
    ],
    [
      "o",
      "ld "
    ],
    [
      "at",
      "e "
    ],
    [
      "di",
      "d "
    ],
    [
      "ough",
      "t "
    ],
    [
      "Mr",
      ". "
    ],
    [
      "s",
      ". "
    ],
    [
      " ",
      "of "
    ],
    [
      "w",
      "ay"
    ],
    [
      "w",
      "e "
    ],
    [
      "litt",
      "le "
    ],
    [
      "u",
      "d"
    ],
    [
      "o",
      "v"
    ],
    [
      "ab",
      "le "
    ],
    [
      "your",
      " "
    ],
    [
      "d",
      "es"
    ],
    [
      "g",
      "l"
    ],
    [
      "ad",
      "e "
    ],
    [
      "st",
      "r"
    ],
    [
      "ow",
      " "
    ],
    [
      "ar",
      "m"
    ],
    [
      "l",
      "ong"
    ],
    [
      "be",
      "en"
    ],
    [
      "w",
      "hat "
    ],
    [
      "p",
      "ec"
    ],
    [
      "it",
      "e "
    ],
    [
      "the ",
      "s"
    ],
    [
      "d",
      "on"
    ],
    [
      "d",
      "ay"
    ],
    [
      "a",
      "th"
    ],
    [
      "c",
      "i"
    ],
    [
      "e",
      ", and "
    ],
    [
      "s",
      "o "
    ],
    [
      "wh",
      "en"
    ],
    [
      "s",
      "e "
    ],
    [
      "h",
      "ear"
    ],
    [
      "o",
      "b"
    ],
    [
      "th",
      "ing "
    ],
    [
      "ti",
      "m"
    ],
    [
      "an",
      "t"
    ],
    [
      "th",
      "ere "
    ],
    [
      "a",
      " s"
    ],
    [
      "a",
      "ll "
    ],
    [
      "ac",
      "k"
    ],
    [
      "c",
      "ould "
    ],
    [
      "p",
      "le"
    ],
    [
      "?",
      "\"\n\n\""
    ],
    [
      "as",
      "\n"
    ],
    [
      "'",
      "\n\n"
    ],
    [
      "    ",
      " "
    ],
    [
      "c",
      "r"
    ],
    [
      "er",
      "v"
    ],
    [
      "u",
      "re"
    ],
    [
      ". ",
      "A"
    ],
    [
      "el",
      "y "
    ],
    [
      "ur",
      "e "
    ],
    [
      "in",
      "k"
    ],
    [
      "gh",
      "t "
    ],
    [
      "our",
      " "
    ],
    [
      "s",
      ", and "
    ],
    [
      "be",
      "en "
    ],
    [
      "ti",
      "c"
    ],
    [
      "at",
      "\n"
    ],
    [
      "I",
      " w"
    ],
    [
      "a",
      "ve "
    ],
    [
      "s ",
      "and "
    ],
    [
      "f",
      "l"
    ],
    [
      "en",
      "ce "
    ],
    [
      "un",
      "der"
    ],
    [
      " s",
      "e"
    ],
    [
      "f",
      "ri"
    ],
    [
      "ag",
      "ain"
    ],
    [
      "ing",
      " the "
    ],
    [
      "s",
      "w"
    ],
    [
      "on",
      "ly "
    ],
    [
      "b",
      "er"
    ],
    [
      "c",
      "ar"
    ],
    [
      "g",
      "n"
    ],
    [
      "e",
      "f"
    ],
    [
      "d",
      "o "
    ],
    [
      ",",
      "'"
    ],
    [
      "i",
      "on"
    ],
    [
      "to ",
      "be "
    ],
    [
      "ne",
      "w"
    ],
    [
      " th",
      "ey "
    ],
    [
      "t",
      "y "
    ],
    [
      "s",
      "id"
    ],
    [
      "it",
      "s "
    ],
    [
      "loo",
      "k"
    ],
    [
      "a",
      "us"
    ],
    [
      "ic",
      "k"
    ],
    [
      "ti",
      "me "
    ],
    [
      "an",
      "ce "
    ],
    [
      "pl",
      "ac"
    ],
    [
      "!",
      "\""
    ],
    [
      " m",
      "e"
    ],
    [
      "befor",
      "e "
    ],
    [
      "c",
      "o"
    ],
    [
      "a",
      "\n"
    ],
    [
      "be",
      "g"
    ],
    [
      "es",
      "e "
    ],
    [
      " a",
      " s"
    ],
    [
      " ",
      "to"
    ],
    [
      "b",
      "le "
    ],
    [
      "N",
      "o"
    ],
    [
      ", ",
      "s"
    ],
    [
      "it",
      "y "
    ],
    [
      " ",
      "re"
    ],
    [
      " c",
      "on"
    ],
    [
      "g",
      "e"
    ],
    [
      "H",
      "e "
    ],
    [
      "or",
      "d"
    ],
    [
      "com",
      "e "
    ],
    [
      "ro",
      "om"
    ],
    [
      "u",
      "c"
    ],
    [
      "th",
      "ough"
    ],
    [
      "o",
      "ther "
    ],
    [
      "I",
      " s"
    ],
    [
      "en",
      ", "
    ],
    [
      "from",
      " "
    ],
    [
      "ar",
      "d "
    ],
    [
      "re",
      "ad"
    ],
    [
      "all",
      "y "
    ],
    [
      "r",
      "a"
    ],
    [
      "in",
      "e "
    ],
    [
      "th",
      " "
    ],
    [
      "up",
      "on"
    ],
    [
      ";",
      "\n"
    ],
    [
      "it ",
      "was "
    ],
    [
      "mor",
      "e "
    ],
    [
      "for",
      " the "
    ],
    [
      "s ",
      "of "
    ],
    [
      "v",
      "i"
    ],
    [
      "es",
      "t"
    ],
    [
      " m",
      "or"
    ],
    [
      "in",
      "\n"
    ],
    [
      "e",
      ". "
    ],
    [
      "s",
      "ai"
    ],
    [
      "w",
      "e"
    ],
    [
      "c",
      "oun"
    ],
    [
      "if",
      " "
    ],
    [
      "t",
      "ri"
    ],
    [
      "goo",
      "d "
    ],
    [
      "?",
      "\""
    ],
    [
      "I",
      " am"
    ],
    [
      "of",
      " his "
    ],
    [
      "from",
      " the "
    ],
    [
      "as",
      "t"
    ],
    [
      ":",
      " "
    ],
    [
      "g",
      "e "
    ],
    [
      "I",
      " c"
    ],
    [
      "k",
      "e"
    ],
    [
      "h",
      "and"
    ],
    [
      "m",
      "ost "
    ],
    [
      "by",
      " the "
    ],
    [
      "th",
      "eir"
    ],
    [
      "er",
      ", "
    ],
    [
      "gre",
      "at "
    ],
    [
      " s",
      "o"
    ],
    [
      "t",
      "ak"
    ],
    [
      "en",
      "d "
    ],
    [
      " m",
      "e "
    ],
    [
      "s",
      "ti"
    ],
    [
      " m",
      "an"
    ],
    [
      "ha",
      "s "
    ],
    [
      "p",
      "or"
    ],
    [
      "n",
      " "
    ],
    [
      "m",
      "ade "
    ],
    [
      "le",
      ", "
    ],
    [
      " w",
      "hat "
    ],
    [
      "b",
      "re"
    ],
    [
      "f",
      "er"
    ],
    [
      "ing",
      " a"
    ],
    [
      "v",
      "o"
    ],
    [
      "g",
      "ain"
    ],
    [
      "u",
      "ll"
    ],
    [
      "r",
      "ough"
    ],
    [
      "; ",
      "but "
    ],
    [
      ". I",
      "t "
    ],
    [
      "c",
      "ame "
    ],
    [
      "in",
      "c"
    ],
    [
      "t",
      "re"
    ],
    [
      "a",
      "ti"
    ],
    [
      "oun",
      "d"
    ],
    [
      "ed ",
      "in"
    ],
    [
      "of",
      " s"
    ],
    [
      "w",
      "ill "
    ],
    [
      "ed ",
      "him"
    ],
    [
      "W",
      "hat "
    ],
    [
      "n",
      "g"
    ],
    [
      "igh",
      "t"
    ],
    [
      " a",
      "s"
    ],
    [
      ", ",
      "but "
    ],
    [
      "el",
      "i"
    ],
    [
      "b",
      "ro"
    ],
    [
      "s",
      "on"
    ],
    [
      "you",
      "ng"
    ],
    [
      "ab",
      "out "
    ],
    [
      "a",
      "ir"
    ],
    [
      "ed ",
      "to"
    ],
    [
      "en",
      "c"
    ],
    [
      "i",
      "le "
    ],
    [
      "I",
      "'"
    ],
    [
      "s",
      "ome "
    ],
    [
      "uch",
      " "
    ],
    [
      "t",
      "ake "
    ],
    [
      "for",
      "m"
    ],
    [
      "at ",
      "the "
    ],
    [
      "ou",
      "t"
    ],
    [
      "ag",
      "e "
    ],
    [
      "which",
      " "
    ],
    [
      "M",
      "ar"
    ],
    [
      "af",
      "ter"
    ],
    [
      ",\n",
      "and "
    ],
    [
      "h",
      "ow"
    ],
    [
      "M",
      "is"
    ],
    [
      "fir",
      "st "
    ],
    [
      "it",
      ", "
    ],
    [
      "b",
      "u"
    ],
    [
      "o",
      "ll"
    ],
    [
      " a",
      "\n"
    ],
    [
      "ev",
      "en"
    ],
    [
      "an",
      "y"
    ],
    [
      "n",
      "'t "
    ],
    [
      "c",
      "c"
    ],
    [
      "ar",
      "k"
    ],
    [
      "v",
      "er "
    ],
    [
      "i",
      "p"
    ],
    [
      "g",
      "ent"
    ],
    [
      "in",
      "ter"
    ],
    [
      "I",
      " have "
    ],
    [
      ".\n\n",
      "'"
    ],
    [
      "p",
      "li"
    ],
    [
      "se",
      "em"
    ],
    [
      "s",
      "aid "
    ],
    [
      "pe",
      "op"
    ],
    [
      "he ",
      "had "
    ],
    [
      "'\n\n",
      "'"
    ],
    [
      "re",
      "c"
    ],
    [
      " their",
      " "
    ],
    [
      "au",
      "gh"
    ],
    [
      "f",
      "ec"
    ],
    [
      "m",
      "on"
    ],
    [
      "er",
      "s "
    ],
    [
      "w",
      "ell"
    ],
    [
      "n",
      "ess "
    ],
    [
      "G",
      "o"
    ],
    [
      "at",
      "ed "
    ],
    [
      " h",
      "ear"
    ],
    [
      " with",
      " "
    ],
    [
      ", ",
      "the "
    ],
    [
      "c",
      "aus"
    ],
    [
      "s",
      "m"
    ],
    [
      "g",
      "u"
    ],
    [
      "he ",
      "was "
    ],
    [
      "A",
      "r"
    ],
    [
      "d",
      "en"
    ],
    [
      "to",
      "w"
    ],
    [
      "e",
      "e "
    ],
    [
      "ac",
      "k "
    ],
    [
      "t",
      "al"
    ],
    [
      "with",
      " the "
    ],
    [
      "th",
      "en"
    ],
    [
      "wh",
      "en "
    ],
    [
      "li",
      "f"
    ],
    [
      ", ",
      "as "
    ],
    [
      " h",
      "e"
    ],
    [
      "ple",
      "as"
    ],
    [
      "you",
      " w"
    ],
    [
      "gh",
      "t"
    ],
    [
      "don",
      "'t "
    ],
    [
      "le",
      "f"
    ],
    [
      "e",
      "very "
    ],
    [
      "p",
      "ass"
    ],
    [
      "j",
      "o"
    ],
    [
      "is",
      "t"
    ],
    [
      "loo",
      "ked "
    ],
    [
      "le",
      "t "
    ],
    [
      "e ",
      "and "
    ],
    [
      "t",
      "t"
    ],
    [
      " w",
      "e "
    ],
    [
      "\n",
      "the "
    ],
    [
      "a",
      " m"
    ],
    [
      "i",
      "v"
    ],
    [
      "I",
      "\n"
    ],
    [
      "self",
      " "
    ],
    [
      "s",
      "ome"
    ],
    [
      "ap",
      "p"
    ],
    [
      "d",
      "ay "
    ],
    [
      ". ",
      " "
    ],
    [
      "ai",
      "l"
    ],
    [
      "e",
      "w"
    ],
    [
      "'",
      " "
    ],
    [
      "s",
      "p"
    ],
    [
      "an",
      "sw"
    ],
    [
      "t",
      "ter"
    ],
    [
      " c",
      "om"
    ],
    [
      "d",
      "ear"
    ],
    [
      "si",
      "on"
    ],
    [
      "g",
      "o "
    ],
    [
      "v",
      "en"
    ],
    [
      "wh",
      "ere "
    ],
    [
      "w",
      "ay "
    ],
    [
      "c",
      "ha"
    ],
    [
      "s",
      "erv"
    ],
    [
      "pe",
      "ak"
    ],
    [
      "ar",
      "ri"
    ],
    [
      "d",
      "re"
    ],
    [
      "e",
      ".\n\n"
    ],
    [
      "l",
      "ad"
    ],
    [
      "e",
      "'s "
    ],
    [
      "ar",
      "r"
    ],
    [
      "I",
      "t "
    ],
    [
      ". ",
      "But "
    ],
    [
      "s ",
      "of"
    ],
    [
      " s",
      "ha"
    ],
    [
      "a",
      ", "
    ],
    [
      "t",
      "'s "
    ],
    [
      " a",
      "b"
    ],
    [
      " s",
      "t"
    ],
    [
      "Mis",
      "s "
    ],
    [
      "ic",
      "e "
    ],
    [
      "p",
      "ut "
    ],
    [
      "tr",
      "u"
    ],
    [
      "fe",
      "el"
    ],
    [
      "gi",
      "ve "
    ],
    [
      "and",
      ", "
    ],
    [
      "ed ",
      "and "
    ],
    [
      "w",
      "ent "
    ],
    [
      "b",
      "le"
    ],
    [
      "j",
      "ust "
    ],
    [
      "lo",
      "v"
    ],
    [
      "sh",
      "ould "
    ],
    [
      "it",
      "y"
    ],
    [
      "or",
      "n"
    ],
    [
      "c",
      "er"
    ],
    [
      "re",
      "e "
    ],
    [
      "him",
      " "
    ],
    [
      " h",
      "is\n"
    ],
    [
      "y",
      "ear"
    ],
    [
      "bo",
      "d"
    ],
    [
      "t",
      "ell"
    ],
    [
      "p",
      "h"
    ],
    [
      "h",
      "ous"
    ],
    [
      "c",
      "our"
    ],
    [
      "ed ",
      "his "
    ],
    [
      "at",
      "ch"
    ],
    [
      "en",
      "g"
    ],
    [
      "ch",
      "il"
    ],
    [
      "in",
      " his "
    ],
    [
      "g",
      "et "
    ],
    [
      "it ",
      "is "
    ],
    [
      "an",
      "\n"
    ],
    [
      "d",
      "e "
    ],
    [
      "do",
      "or"
    ],
    [
      "with",
      "out "
    ],
    [
      "l",
      "y, "
    ],
    [
      "b",
      "ack"
    ],
    [
      ", ",
      "that "
    ],
    [
      "u",
      "b"
    ],
    [
      "tw",
      "o "
    ],
    [
      "p",
      "ri"
    ],
    [
      "f",
      " "
    ],
    [
      "d",
      "ec"
    ],
    [
      ", and ",
      "the "
    ],
    [
      "j",
      "ec"
    ],
    [
      "e",
      ",\n"
    ],
    [
      "m",
      "ight "
    ],
    [
      "w",
      "as\n"
    ],
    [
      "m",
      "is"
    ],
    [
      "own",
      " "
    ],
    [
      ".\n\n",
      "The "
    ],
    [
      "is",
      "e "
    ],
    [
      "ing",
      " s"
    ],
    [
      "C",
      "h"
    ],
    [
      "us",
      "h"
    ],
    [
      "a",
      " c"
    ],
    [
      "O",
      "n"
    ],
    [
      "F",
      "r"
    ],
    [
      " a",
      "gain"
    ],
    [
      "tw",
      "o"
    ],
    [
      "l",
      "ess "
    ],
    [
      " mor",
      "e "
    ],
    [
      "as",
      "h"
    ],
    [
      "ar",
      " "
    ],
    [
      ", ",
      "\""
    ],
    [
      "m",
      "en"
    ],
    [
      " w",
      "or"
    ],
    [
      "W",
      "e "
    ],
    [
      " a",
      "l"
    ],
    [
      "m",
      "ust "
    ],
    [
      "ing ",
      "to "
    ],
    [
      "m",
      "in"
    ],
    [
      "i",
      "ous "
    ],
    [
      "ha",
      "pp"
    ],
    [
      "ha",
      "v"
    ],
    [
      "po",
      "in"
    ],
    [
      "fri",
      "end"
    ],
    [
      "ol",
      "d"
    ],
    [
      "for",
      "t"
    ],
    [
      "ne",
      "ver"
    ],
    [
      "li",
      "v"
    ],
    [
      "ne",
      "ver "
    ],
    [
      "W",
      "ell"
    ],
    [
      "c",
      "ap"
    ],
    [
      ".\n\n",
      "And "
    ],
    [
      "of",
      " th"
    ],
    [
      "did ",
      "not "
    ],
    [
      "s",
      "ay"
    ],
    [
      " a",
      " m"
    ],
    [
      "w",
      "ill"
    ],
    [
      "lef",
      "t "
    ],
    [
      "go",
      "t "
    ],
    [
      ". ",
      "I "
    ],
    [
      "l",
      "ast "
    ],
    [
      "v",
      "is"
    ],
    [
      "m",
      "ent"
    ],
    [
      "in",
      "k "
    ],
    [
      "Mr",
      "s. "
    ],
    [
      "fa",
      "ther"
    ],
    [
      "ed",
      ", and "
    ],
    [
      "c",
      "an"
    ],
    [
      "e",
      "as"
    ],
    [
      "t",
      "in"
    ],
    [
      "b",
      "ur"
    ],
    [
      "?",
      "\n\n"
    ],
    [
      "tion",
      " "
    ],
    [
      "m",
      "er"
    ],
    [
      "M",
      "y "
    ],
    [
      "I",
      " was "
    ],
    [
      "ing",
      " his "
    ],
    [
      "way",
      "s "
    ],
    [
      " sh",
      "ould "
    ],
    [
      "caus",
      "e "
    ],
    [
      "c",
      "re"
    ],
    [
      "ey",
      "es "
    ],
    [
      "m",
      "o"
    ],
    [
      "f",
      "ound "
    ],
    [
      "h",
      "e\n"
    ],
    [
      "op",
      "en"
    ],
    [
      "g",
      "g"
    ],
    [
      "es",
      "\n"
    ],
    [
      "ar",
      "y "
    ],
    [
      "g",
      "en"
    ],
    [
      "up",
      " "
    ],
    [
      "th",
      "at"
    ],
    [
      "th",
      "an"
    ],
    [
      "l",
      "ar"
    ],
    [
      "it",
      "\n"
    ],
    [
      "h",
      "el"
    ],
    [
      "sha",
      "ll "
    ],
    [
      "l",
      "y\n"
    ],
    [
      "h",
      ", "
    ],
    [
      "f",
      "el"
    ],
    [
      "th",
      "ou"
    ],
    [
      "n",
      "ear"
    ],
    [
      "answ",
      "er"
    ],
    [
      "gent",
      "le"
    ],
    [
      "wh",
      "o "
    ],
    [
      "ed ",
      "by "
    ],
    [
      "ab",
      "le"
    ],
    [
      "at",
      "ter"
    ],
    [
      "f",
      "in"
    ],
    [
      "t",
      "u"
    ],
    [
      "e ",
      "of "
    ],
    [
      "f",
      "ic"
    ],
    [
      "y",
      "self"
    ],
    [
      "in",
      " a "
    ],
    [
      "f",
      "oll"
    ],
    [
      "en",
      "ce"
    ],
    [
      "b",
      "eli"
    ],
    [
      "re",
      "turn"
    ],
    [
      "r",
      "ow"
    ],
    [
      "i",
      "gn"
    ],
    [
      "in",
      "to"
    ],
    [
      "you",
      ", "
    ],
    [
      "s ",
      "the "
    ],
    [
      "qu",
      "ite "
    ],
    [
      " him",
      " "
    ],
    [
      "w",
      "r"
    ],
    [
      "p",
      "i"
    ],
    [
      "t",
      "on"
    ],
    [
      "m",
      "ay "
    ],
    [
      "m",
      "an "
    ],
    [
      "in",
      "n"
    ],
    [
      ".",
      "\""
    ],
    [
      "k",
      "ing"
    ],
    [
      "f",
      "oo"
    ],
    [
      "a",
      "z"
    ],
    [
      "p",
      "ur"
    ],
    [
      " w",
      "ere "
    ],
    [
      "in",
      "ce "
    ],
    [
      "c",
      "all"
    ],
    [
      " s",
      "ome "
    ],
    [
      "em",
      "p"
    ],
    [
      "c",
      "ri"
    ],
    [
      " a",
      "d"
    ],
    [
      "d",
      "res"
    ],
    [
      "e",
      "e"
    ],
    [
      "com",
      "p"
    ],
    [
      "ed ",
      "with"
    ],
    [
      " a",
      " c"
    ],
    [
      "k",
      "new"
    ],
    [
      "oo",
      "k"
    ],
    [
      "t ",
      "of "
    ],
    [
      ". S",
      "he "
    ],
    [
      ",'",
      " said "
    ],
    [
      "app",
      "ear"
    ],
    [
      "ing",
      "s "
    ],
    [
      "at",
      "er"
    ],
    [
      "of",
      " the\n"
    ],
    [
      "of",
      " m"
    ],
    [
      "om",
      "an"
    ],
    [
      "t",
      "e "
    ],
    [
      " th",
      "ere "
    ],
    [
      "ful",
      " "
    ],
    [
      "o",
      "cc"
    ],
    [
      " the ",
      "s"
    ],
    [
      "their",
      " "
    ],
    [
      "t",
      "ing"
    ],
    [
      "t",
      "ing "
    ],
    [
      "es",
      ", and "
    ],
    [
      "f",
      "am"
    ],
    [
      "of",
      " a "
    ],
    [
      "\n",
      "      "
    ],
    [
      "d",
      "ou"
    ],
    [
      "wor",
      "d"
    ],
    [
      "ation",
      " "
    ],
    [
      "n",
      "at"
    ],
    [
      ".\n\n",
      "A"
    ],
    [
      "qu",
      "i"
    ],
    [
      "b",
      "ack "
    ],
    [
      "I",
      "n"
    ],
    [
      "ha",
      "p"
    ],
    [
      "You",
      " "
    ],
    [
      "ke",
      "ep"
    ],
    [
      "b",
      "ri"
    ],
    [
      "I",
      " m"
    ],
    [
      "n",
      "ec"
    ],
    [
      "s",
      ",\n"
    ],
    [
      "ch",
      "ar"
    ],
    [
      "d",
      "el"
    ],
    [
      "t",
      "ly "
    ],
    [
      "com",
      "m"
    ],
    [
      "ever",
      "y"
    ],
    [
      "be",
      "ing "
    ],
    [
      "in",
      "to the "
    ],
    [
      "y",
      "et "
    ],
    [
      " w",
      "ould "
    ],
    [
      "ed ",
      "that "
    ],
    [
      "peop",
      "le "
    ],
    [
      "sai",
      "d, "
    ],
    [
      "en",
      "ough"
    ],
    [
      " a",
      "f"
    ],
    [
      "th",
      "rough"
    ],
    [
      "'",
      "s\n"
    ],
    [
      "i",
      "d "
    ],
    [
      "be",
      "tw"
    ],
    [
      "s ",
      "of the "
    ],
    [
      ", ",
      "he "
    ],
    [
      "c",
      "ur"
    ],
    [
      "E",
      "n"
    ],
    [
      "an",
      "k"
    ],
    [
      "\n\n",
      "\""
    ],
    [
      " a",
      "c"
    ],
    [
      ",\"",
      " "
    ],
    [
      "l",
      "ow"
    ],
    [
      "Mr",
      " "
    ],
    [
      "ev",
      "er "
    ],
    [
      "u",
      "e "
    ],
    [
      "be",
      "cause "
    ],
    [
      "on",
      "e"
    ],
    [
      "pos",
      "si"
    ],
    [
      "he",
      "ad"
    ],
    [
      "es",
      "s, "
    ],
    [
      "i",
      "ly "
    ],
    [
      "r",
      "is"
    ],
    [
      "d",
      "if"
    ],
    [
      "to",
      "ld "
    ],
    [
      "n",
      "ight"
    ],
    [
      "on",
      "ce "
    ],
    [
      "f",
      "ull"
    ],
    [
      "le",
      "ar"
    ],
    [
      "betw",
      "e"
    ],
    [
      " wh",
      "o"
    ],
    [
      "to",
      " him"
    ],
    [
      "foll",
      "ow"
    ],
    [
      "b",
      "e\n"
    ],
    [
      "id",
      "e "
    ],
    [
      "oul",
      "d"
    ],
    [
      "'",
      "d "
    ],
    [
      "fac",
      "e "
    ],
    [
      "e",
      "for"
    ],
    [
      "h",
      "or"
    ],
    [
      ". ",
      "And "
    ],
    [
      "re",
      "as"
    ],
    [
      "d",
      "id"
    ],
    [
      "im",
      "p"
    ],
    [
      "fel",
      "t "
    ],
    [
      "qu",
      "es"
    ],
    [
      "on",
      "d "
    ],
    [
      "too",
      "d "
    ],
    [
      "r",
      "e "
    ],
    [
      " he ",
      "had "
    ],
    [
      "i",
      "z"
    ],
    [
      "ti",
      "ll"
    ],
    [
      "ti",
      "l"
    ],
    [
      "in",
      "st"
    ],
    [
      "too",
      "k"
    ],
    [
      "ce",
      "p"
    ],
    [
      "f",
      "ar"
    ],
    [
      "wh",
      "ile "
    ],
    [
      "I",
      " had "
    ],
    [
      " th",
      "ink"
    ],
    [
      "no",
      "t\n"
    ],
    [
      "J",
      "o"
    ],
    [
      "th",
      "an "
    ],
    [
      "no",
      "thing "
    ],
    [
      "t",
      "y"
    ],
    [
      "ev",
      "en "
    ],
    [
      "s",
      "ed "
    ],
    [
      "f",
      "ell"
    ],
    [
      " th",
      "ese "
    ],
    [
      "ha",
      "l"
    ],
    [
      "an",
      "ce"
    ],
    [
      ", ",
      "and\n"
    ],
    [
      ".",
      "'\n\n'"
    ],
    [
      "w",
      "ard"
    ],
    [
      "th",
      "at\n"
    ],
    [
      "the ",
      "m"
    ],
    [
      "con",
      "s"
    ],
    [
      "en",
      "ter"
    ],
    [
      "F",
      "or"
    ],
    [
      "s",
      "ur"
    ],
    [
      "T",
      "hat "
    ],
    [
      "s",
      "to"
    ],
    [
      "in",
      " s"
    ],
    [
      "ir",
      " "
    ],
    [
      "pr",
      "is"
    ],
    [
      "mor",
      "n"
    ],
    [
      "ch",
      "i"
    ],
    [
      " h",
      "and"
    ],
    [
      "no",
      "t"
    ],
    [
      "S",
      "he "
    ],
    [
      "ti",
      "me"
    ],
    [
      "pl",
      "ain"
    ],
    [
      "ou",
      "se"
    ],
    [
      "ir",
      "l"
    ],
    [
      "b",
      "us"
    ],
    [
      "ha",
      "d\n"
    ],
    [
      ",\"",
      " he "
    ],
    [
      "now",
      " "
    ],
    [
      "f",
      "ear"
    ],
    [
      "e",
      "ach"
    ],
    [
      " ab",
      "out "
    ],
    [
      "be",
      "h"
    ],
    [
      "s",
      "uch"
    ],
    [
      "li",
      "ght "
    ],
    [
      "gi",
      "v"
    ],
    [
      "p",
      "as"
    ],
    [
      "O",
      "R"
    ],
    [
      "s",
      "po"
    ],
    [
      "fe",
      "w"
    ],
    [
      " at ",
      "the "
    ],
    [
      "with",
      " a "
    ],
    [
      ". ",
      "'"
    ],
    [
      "and ",
      "the "
    ],
    [
      "ex",
      "c"
    ],
    [
      "ri",
      "ed "
    ],
    [
      "i",
      "le"
    ],
    [
      "of",
      " my "
    ],
    [
      "f",
      "ur"
    ],
    [
      "li",
      "c"
    ],
    [
      "at",
      "t"
    ],
    [
      "re",
      "l"
    ],
    [
      " ha",
      "v"
    ],
    [
      "m",
      "uch"
    ],
    [
      "dis",
      "t"
    ],
    [
      "ent",
      "ly "
    ],
    [
      "id",
      "e"
    ],
    [
      " which",
      " "
    ],
    [
      "sh",
      "ip"
    ],
    [
      "for",
      "\n"
    ],
    [
      "s",
      "aw"
    ],
    [
      "g",
      "ave "
    ],
    [
      "up",
      "on the "
    ],
    [
      "al",
      "ways "
    ],
    [
      "sel",
      "v"
    ],
    [
      "turn",
      "ed "
    ],
    [
      "oul",
      "d\n"
    ],
    [
      "m",
      "ent "
    ],
    [
      "y",
      ", and "
    ],
    [
      "is",
      ", "
    ],
    [
      " a",
      "ll "
    ],
    [
      "to s",
      "ee "
    ],
    [
      "n",
      "ess"
    ],
    [
      "he",
      "ad "
    ],
    [
      "you",
      "\n"
    ],
    [
      "e",
      "--"
    ],
    [
      "a",
      " w"
    ],
    [
      "ch",
      "ang"
    ],
    [
      "h",
      "and "
    ],
    [
      "r",
      "y "
    ],
    [
      "dr",
      "aw"
    ],
    [
      "c",
      "lo"
    ],
    [
      "an",
      "other"
    ],
    [
      "i",
      "g"
    ],
    [
      "th",
      "y "
    ],
    [
      "l",
      "augh"
    ],
    [
      "f",
      "ind "
    ],
    [
      "l",
      "ed "
    ],
    [
      "on",
      ", "
    ],
    [
      "s",
      ".\n\n"
    ],
    [
      "dou",
      "b"
    ],
    [
      "m",
      "om"
    ],
    [
      "se",
      "e "
    ],
    [
      "th",
      "e"
    ],
    [
      "r",
      "ound "
    ],
    [
      "no",
      "thing"
    ],
    [
      "s",
      "k"
    ],
    [
      ".\"",
      " "
    ],
    [
      "as",
      "ter"
    ],
    [
      "k",
      "ing "
    ],
    [
      "s",
      "or"
    ],
    [
      "; ",
      "\""
    ],
    [
      "st",
      "re"
    ],
    [
      "per",
      "son"
    ],
    [
      "er",
      "e\n"
    ],
    [
      "it",
      "ch"
    ],
    [
      "to",
      " his "
    ],
    [
      "h",
      "o"
    ],
    [
      "bod",
      "y "
    ],
    [
      "ne",
      "x"
    ],
    [
      "ay",
      ", "
    ],
    [
      "th",
      "en "
    ],
    [
      "s",
      "up"
    ],
    [
      "lo",
      "ve "
    ],
    [
      "i",
      "es "
    ],
    [
      "a",
      "it"
    ],
    [
      "OR",
      "D"
    ],
    [
      "I am",
      " "
    ],
    [
      "g",
      "irl"
    ],
    [
      "i",
      "x"
    ],
    [
      "plac",
      "e "
    ],
    [
      ". ",
      "B"
    ],
    [
      "L",
      "ORD"
    ],
    [
      "c",
      "as"
    ],
    [
      "T",
      "his "
    ],
    [
      "him",
      "self"
    ],
    [
      "n",
      "am"
    ],
    [
      "b",
      "es"
    ],
    [
      "t",
      "ro"
    ],
    [
      "a",
      "ther"
    ],
    [
      " th",
      "at"
    ],
    [
      "s ",
      "were "
    ],
    [
      "ten",
      "d"
    ],
    [
      "por",
      "t"
    ],
    [
      "down",
      " "
    ],
    [
      "n",
      "ight "
    ],
    [
      "gen",
      "er"
    ],
    [
      "ce",
      "iv"
    ],
    [
      "m",
      " "
    ],
    [
      "rem",
      "ain"
    ],
    [
      "d",
      "one "
    ],
    [
      "si",
      "on "
    ],
    [
      "a",
      "h"
    ],
    [
      "!",
      "\"\n\n"
    ],
    [
      "br",
      "ought "
    ],
    [
      "read",
      "y "
    ],
    [
      " c",
      "ould "
    ],
    [
      "ent",
      ", "
    ],
    [
      "h",
      "is\n"
    ],
    [
      "to",
      "ge"
    ],
    [
      "w",
      "ind"
    ],
    [
      "ex",
      "pres"
    ],
    [
      "em",
      "ber"
    ],
    [
      "p",
      "ic"
    ],
    [
      "st",
      "and"
    ],
    [
      "i",
      "tion"
    ],
    [
      "ri",
      "ght "
    ],
    [
      "pec",
      "t"
    ],
    [
      "p",
      "ow"
    ],
    [
      "in",
      "de"
    ],
    [
      "p",
      " "
    ],
    [
      "u",
      "f"
    ],
    [
      "on",
      "\n"
    ],
    [
      "w",
      "as"
    ],
    [
      "t",
      "ter "
    ],
    [
      "P",
      "r"
    ],
    [
      "hear",
      "d "
    ],
    [
      "su",
      "b"
    ],
    [
      "l",
      "aw"
    ],
    [
      "e",
      "-"
    ],
    [
      ",",
      "--"
    ],
    [
      "s ",
      "that "
    ],
    [
      "i",
      "on "
    ],
    [
      "again",
      "st "
    ],
    [
      "all",
      " the "
    ],
    [
      "them",
      " "
    ],
    [
      "th",
      "ought "
    ],
    [
      " m",
      "uch"
    ],
    [
      "s",
      "ec"
    ],
    [
      "le",
      "ep"
    ],
    [
      "de",
      "ath"
    ],
    [
      "sai",
      "d"
    ],
    [
      "ques",
      "tion"
    ],
    [
      "u",
      "ck"
    ],
    [
      ". ",
      "Wh"
    ],
    [
      "ed ",
      "her"
    ],
    [
      "!",
      "\"\n\n\""
    ],
    [
      "Q",
      "u"
    ],
    [
      "d",
      "uc"
    ],
    [
      "on",
      "d"
    ],
    [
      " re",
      "pli"
    ],
    [
      "sid",
      "er"
    ],
    [
      "es ",
      "and "
    ],
    [
      "s",
      "en"
    ],
    [
      "tain",
      " "
    ],
    [
      "m",
      "ake "
    ],
    [
      "W",
      "ith"
    ],
    [
      ".\n\n",
      "Th"
    ],
    [
      "le",
      "d"
    ],
    [
      "h",
      "ere "
    ],
    [
      "an",
      "n"
    ],
    [
      "un",
      "g"
    ],
    [
      "ing ",
      "and "
    ],
    [
      "beg",
      "an "
    ],
    [
      "long",
      " "
    ],
    [
      "qu",
      "ir"
    ],
    [
      "on",
      "der"
    ],
    [
      "w",
      "al"
    ],
    [
      "on",
      " his "
    ],
    [
      "l",
      "in"
    ],
    [
      ". It ",
      "was "
    ],
    [
      "sti",
      "ll"
    ],
    [
      "ha",
      "t"
    ],
    [
      "w",
      "if"
    ],
    [
      " h",
      "as "
    ],
    [
      "er",
      "e"
    ],
    [
      "is",
      "ter"
    ],
    [
      "know",
      " "
    ],
    [
      " s",
      "o "
    ],
    [
      "en",
      "ch"
    ],
    [
      "oo",
      "d"
    ],
    [
      "v",
      "al"
    ],
    [
      "th",
      "ese "
    ],
    [
      "chil",
      "dr"
    ],
    [
      "on",
      "'t "
    ],
    [
      "up",
      "on "
    ],
    [
      "con",
      "f"
    ],
    [
      "young",
      " "
    ],
    [
      "st",
      "ar"
    ],
    [
      " her",
      "\n"
    ],
    [
      "m",
      "e, "
    ],
    [
      "th",
      ", "
    ],
    [
      "me",
      "an"
    ],
    [
      "tim",
      "es "
    ],
    [
      " th",
      "an"
    ],
    [
      "ow",
      ", "
    ],
    [
      "re",
      "g"
    ],
    [
      "ish",
      " "
    ],
    [
      "di",
      "rec"
    ],
    [
      ". Th",
      "ey "
    ],
    [
      "le",
      "\n"
    ],
    [
      "as",
      "k"
    ],
    [
      "s",
      "tood "
    ],
    [
      " se",
      "e "
    ],
    [
      "ou",
      "ch"
    ],
    [
      "ut",
      "ter"
    ],
    [
      "ch",
      "o"
    ],
    [
      "h",
      "ouse"
    ],
    [
      "ith",
      "er"
    ],
    [
      "li",
      "ght"
    ],
    [
      "l",
      "and"
    ],
    [
      "s",
      "c"
    ],
    [
      "r",
      "un"
    ],
    [
      "p",
      "en"
    ],
    [
      "s",
      "--"
    ],
    [
      "c",
      "an "
    ],
    [
      "ov",
      "er "
    ],
    [
      "ul",
      "ar"
    ],
    [
      "v",
      "e"
    ],
    [
      "you",
      " m"
    ],
    [
      "re",
      "f"
    ],
    [
      "goo",
      "d"
    ],
    [
      "you ",
      "are "
    ],
    [
      "o",
      "d"
    ],
    [
      "li",
      "k"
    ],
    [
      "d",
      "ro"
    ],
    [
      "lif",
      "e "
    ],
    [
      "en",
      " the "
    ],
    [
      "a",
      "im"
    ],
    [
      "ed ",
      "at "
    ],
    [
      "in",
      " the\n"
    ],
    [
      "Well",
      ", "
    ],
    [
      " th",
      "ought "
    ],
    [
      "p",
      "ain"
    ],
    [
      "who",
      "le "
    ],
    [
      "b",
      "ar"
    ],
    [
      "y ",
      "and "
    ],
    [
      "that ",
      "the "
    ],
    [
      ". I",
      "n"
    ],
    [
      "is ",
      "the "
    ],
    [
      "m",
      "ak"
    ],
    [
      "e",
      "ve "
    ],
    [
      ". Th",
      "ere "
    ],
    [
      "hous",
      "e "
    ],
    [
      "ver",
      "s"
    ],
    [
      "n",
      "or"
    ],
    [
      "ed ",
      "a "
    ],
    [
      "S",
      "t"
    ],
    [
      "fort",
      "un"
    ],
    [
      "is",
      "ten"
    ],
    [
      "le",
      "ave "
    ],
    [
      "ac",
      "c"
    ],
    [
      "v",
      "el"
    ],
    [
      "s ",
      "to "
    ],
    [
      "c",
      "over"
    ],
    [
      "could ",
      "not "
    ],
    [
      "m",
      "ed"
    ],
    [
      " him",
      "self"
    ],
    [
      "tin",
      "u"
    ],
    [
      "\n",
      "     "
    ],
    [
      " c",
      "an"
    ],
    [
      "en",
      "ti"
    ],
    [
      "th",
      "ink"
    ],
    [
      "d",
      "u"
    ],
    [
      "a",
      " h"
    ],
    [
      " th",
      "at\n"
    ],
    [
      "pr",
      "om"
    ],
    [
      "h",
      "on"
    ],
    [
      " w",
      "ill "
    ],
    [
      "f",
      "re"
    ],
    [
      "to m",
      "ake "
    ],
    [
      "be",
      "tter"
    ],
    [
      "om",
      " "
    ],
    [
      "would ",
      "be "
    ],
    [
      "fa",
      "ir"
    ],
    [
      "vo",
      "ic"
    ],
    [
      "to",
      "m"
    ],
    [
      "!",
      " I"
    ],
    [
      "in",
      "s"
    ],
    [
      "r",
      "u"
    ],
    [
      ", s",
      "ir"
    ],
    [
      "per",
      "hap"
    ],
    [
      "n",
      "ame "
    ],
    [
      "par",
      "t "
    ],
    [
      "un",
      "til"
    ],
    [
      "Go",
      "d "
    ],
    [
      "or",
      "der"
    ],
    [
      " all",
      " the "
    ],
    [
      "e",
      "t, "
    ],
    [
      "was ",
      "a "
    ],
    [
      "M",
      "on"
    ],
    [
      "m",
      "ad"
    ],
    [
      "Y",
      "es, "
    ],
    [
      "sha",
      "ll"
    ],
    [
      "bo",
      "th"
    ],
    [
      "b",
      "el"
    ],
    [
      ";",
      " the "
    ],
    [
      "le",
      "tter"
    ],
    [
      "b",
      "y\n"
    ],
    [
      "too",
      "k "
    ],
    [
      "ac",
      "e "
    ],
    [
      " th",
      "rough"
    ],
    [
      "l",
      "or"
    ],
    [
      "s",
      "ir"
    ],
    [
      "am",
      "p"
    ],
    [
      " them",
      " "
    ],
    [
      "al",
      "\n"
    ],
    [
      "en",
      "\n"
    ],
    [
      "that ",
      "he "
    ],
    [
      "ing",
      "-"
    ],
    [
      "ir",
      "c"
    ],
    [
      ".",
      "."
    ],
    [
      "te",
      "ll "
    ],
    [
      "would ",
      "have "
    ],
    [
      "go",
      "ing "
    ],
    [
      " s",
      "ay"
    ],
    [
      " th",
      "ink "
    ],
    [
      "in",
      "to "
    ],
    [
      "it",
      "'s "
    ],
    [
      "sid",
      "e "
    ],
    [
      " th",
      "ose "
    ],
    [
      "bre",
      "ak"
    ],
    [
      "y",
      "s"
    ],
    [
      "aw",
      "ay "
    ],
    [
      "ag",
      "n"
    ],
    [
      ", ",
      "who"
    ],
    [
      "nex",
      "t "
    ],
    [
      "s",
      "il"
    ],
    [
      "es ",
      "of "
    ],
    [
      "in",
      " my "
    ],
    [
      "d",
      "augh"
    ],
    [
      "s",
      "peak"
    ],
    [
      "r",
      "ed "
    ],
    [
      "at",
      "e"
    ],
    [
      "ou",
      "t\n"
    ],
    [
      " th",
      "an "
    ],
    [
      "w",
      "ard "
    ],
    [
      "ing",
      " that "
    ],
    [
      "r",
      "os"
    ],
    [
      "re",
      "st"
    ],
    [
      "d",
      "ark"
    ],
    [
      ". ",
      "N"
    ],
    [
      "of\n",
      "the "
    ],
    [
      "f",
      "all"
    ],
    [
      "C",
      "ap"
    ],
    [
      "us",
      "e "
    ],
    [
      " th",
      "y "
    ],
    [
      "a",
      "le"
    ],
    [
      "you",
      " have "
    ],
    [
      "t",
      ", and "
    ],
    [
      "O",
      "h, "
    ],
    [
      "I ",
      "don't "
    ],
    [
      "be",
      "d"
    ],
    [
      "s",
      "e, "
    ],
    [
      "loo",
      "k "
    ],
    [
      "enc",
      "e, "
    ],
    [
      "ing",
      " a "
    ],
    [
      "tim",
      "e, "
    ],
    [
      "li",
      "fe"
    ],
    [
      "w",
      "ar"
    ],
    [
      "li",
      "p"
    ],
    [
      ".",
      "'\n\n"
    ],
    [
      "?",
      "\"\n\n"
    ],
    [
      "ed ",
      "in "
    ],
    [
      "she ",
      "had "
    ],
    [
      "in",
      "ess "
    ],
    [
      "ad",
      "v"
    ],
    [
      "el",
      " "
    ],
    [
      "of",
      " her "
    ],
    [
      "em",
      "ent"
    ],
    [
      "d",
      "ar"
    ],
    [
      "ob",
      "serv"
    ],
    [
      "I",
      " should "
    ],
    [
      "on",
      "e, "
    ],
    [
      "cer",
      "tain"
    ],
    [
      "c",
      "or"
    ],
    [
      "pro",
      "v"
    ],
    [
      "i",
      "ti"
    ],
    [
      " with",
      " the "
    ],
    [
      "y",
      "e "
    ],
    [
      "cl",
      "os"
    ],
    [
      "h",
      "igh"
    ],
    [
      "to",
      " have "
    ],
    [
      "an",
      "other "
    ],
    [
      "par",
      "t"
    ],
    [
      "ha",
      "t's "
    ],
    [
      "for",
      " a "
    ],
    [
      "dre",
      "w"
    ],
    [
      "with",
      "\n"
    ],
    [
      "she ",
      "was "
    ],
    [
      "us",
      "b"
    ],
    [
      "dear",
      " "
    ],
    [
      "m",
      "other"
    ],
    [
      "T",
      "o"
    ],
    [
      "m",
      "ar"
    ],
    [
      "am",
      "ong"
    ],
    [
      "h",
      "ow "
    ],
    [
      "or",
      "\n"
    ],
    [
      "e",
      "er"
    ],
    [
      "ad",
      "d"
    ],
    [
      "ish",
      "ed "
    ],
    [
      "r",
      "y"
    ],
    [
      "pres",
      "ent"
    ],
    [
      "tr",
      "y"
    ],
    [
      "it",
      "y, "
    ],
    [
      "em",
      "ent "
    ],
    [
      "bro",
      "ther"
    ],
    [
      " a",
      " w"
    ],
    [
      "efor",
      "e "
    ],
    [
      "toge",
      "ther"
    ],
    [
      "ep",
      "t "
    ],
    [
      "i",
      "ve "
    ],
    [
      "str",
      "ang"
    ],
    [
      "se",
      "t "
    ],
    [
      "pos",
      "e "
    ],
    [
      "b",
      "it"
    ],
    [
      "ing",
      " at "
    ],
    [
      ", ",
      "which"
    ],
    [
      "l",
      "os"
    ],
    [
      "o",
      "'"
    ],
    [
      "s",
      "ame "
    ],
    [
      "be",
      "ar"
    ],
    [
      "I s",
      "ha"
    ],
    [
      "is ",
      "a "
    ],
    [
      "b",
      "loo"
    ],
    [
      "tr",
      "y "
    ],
    [
      " h",
      "e\n"
    ],
    [
      "h",
      "um"
    ],
    [
      "'",
      "ll "
    ],
    [
      "th",
      "ree "
    ],
    [
      "f",
      "u"
    ],
    [
      "A",
      " "
    ],
    [
      "Th",
      "ere "
    ],
    [
      "m",
      "yself"
    ],
    [
      ". ",
      "D"
    ],
    [
      "with",
      " his "
    ],
    [
      ":",
      "\n"
    ],
    [
      "bu",
      "t\n"
    ],
    [
      "m",
      "ov"
    ],
    [
      "G",
      "r"
    ],
    [
      "gre",
      "at"
    ],
    [
      "ce",
      "ed"
    ],
    [
      "re",
      "d"
    ],
    [
      " th",
      "ough"
    ],
    [
      "j",
      "ud"
    ],
    [
      "h",
      "op"
    ],
    [
      "anc",
      "e, "
    ],
    [
      "t",
      "ch"
    ],
    [
      ".",
      "]"
    ],
    [
      " s",
      "tr"
    ],
    [
      "I w",
      "ill "
    ],
    [
      "En",
      "gl"
    ],
    [
      "man",
      "y "
    ],
    [
      "p",
      "ap"
    ],
    [
      "as ",
      "he "
    ],
    [
      "rem",
      "ember"
    ],
    [
      "had ",
      "been"
    ],
    [
      "an",
      " a"
    ],
    [
      "qu",
      "ar"
    ],
    [
      "s",
      "er"
    ],
    [
      "ha",
      "m"
    ],
    [
      "ing",
      ", and "
    ],
    [
      "ed ",
      "her "
    ],
    [
      "k",
      "ind"
    ],
    [
      "ous",
      "ly "
    ],
    [
      ". ",
      "You"
    ],
    [
      ",\" said ",
      "the "
    ],
    [
      "I c",
      "an"
    ],
    [
      "ith",
      "er "
    ],
    [
      "id",
      "d"
    ],
    [
      "d",
      "ri"
    ],
    [
      "n",
      "igh"
    ],
    [
      "hal",
      "f"
    ],
    [
      "beli",
      "eve "
    ],
    [
      " m",
      "e, "
    ],
    [
      "tow",
      "ard"
    ],
    [
      "ad",
      "\n"
    ],
    [
      ", ",
      "I "
    ],
    [
      "g",
      "et"
    ],
    [
      "le",
      "s "
    ],
    [
      "e",
      "th"
    ],
    [
      "gentle",
      "man"
    ],
    [
      ". T",
      "his "
    ],
    [
      "oo",
      "l"
    ],
    [
      "to",
      "o "
    ],
    [
      "L",
      "or"
    ],
    [
      "el",
      "d"
    ],
    [
      "re",
      "ach"
    ],
    [
      "to",
      " her"
    ],
    [
      "y",
      "'s "
    ],
    [
      "e",
      "g"
    ],
    [
      "?",
      " I"
    ],
    [
      "!",
      "\n\n"
    ],
    [
      "to",
      " w"
    ],
    [
      "do",
      "es "
    ],
    [
      "sti",
      "ll "
    ],
    [
      "cl",
      "aim"
    ],
    [
      "wor",
      "l"
    ],
    [
      "ed ",
      "it "
    ],
    [
      "fir",
      "st"
    ],
    [
      "con",
      "sider"
    ],
    [
      " s",
      "uch"
    ],
    [
      "an",
      "s"
    ],
    [
      "Th",
      "ey "
    ],
    [
      "un",
      "d"
    ],
    [
      "is ",
      "not "
    ],
    [
      "po",
      "or "
    ],
    [
      "man",
      "n"
    ],
    [
      "er ",
      "and "
    ],
    [
      "t",
      "ear"
    ],
    [
      "there ",
      "was "
    ],
    [
      "oo",
      "d "
    ],
    [
      "s",
      "ol"
    ],
    [
      "--",
      "and "
    ],
    [
      "us",
      ", "
    ],
    [
      "al",
      "most "
    ],
    [
      "per",
      "fec"
    ],
    [
      "pr",
      "of"
    ],
    [
      "j",
      "us"
    ],
    [
      "s",
      "ay "
    ],
    [
      "su",
      "d"
    ],
    [
      "th",
      "ose "
    ],
    [
      "un",
      "dr"
    ],
    [
      "to m",
      "e "
    ],
    [
      "each",
      " "
    ],
    [
      "you ",
      "know"
    ],
    [
      "at",
      "ely "
    ],
    [
      "w",
      "oman"
    ],
    [
      "v",
      "ic"
    ],
    [
      " h",
      "op"
    ],
    [
      "l",
      "ay "
    ],
    [
      "le",
      "av"
    ],
    [
      "c",
      "k "
    ],
    [
      "st",
      "and "
    ],
    [
      "st",
      "ep"
    ],
    [
      "t",
      "rem"
    ],
    [
      "we",
      "ll "
    ],
    [
      "on",
      "e\n"
    ],
    [
      "g",
      "one "
    ],
    [
      "su",
      "f"
    ],
    [
      " sha",
      "ll "
    ],
    [
      "ould",
      "n't "
    ],
    [
      "i",
      "li"
    ],
    [
      "st",
      "e"
    ],
    [
      "vi",
      "ew"
    ],
    [
      "!",
      "\n"
    ],
    [
      "to ",
      "do"
    ],
    [
      " as",
      "ked "
    ],
    [
      "had ",
      "been "
    ],
    [
      "g",
      "ar"
    ],
    [
      "ing",
      " m"
    ],
    [
      "wor",
      "k"
    ],
    [
      " he ",
      "was "
    ],
    [
      "!\"",
      " "
    ],
    [
      "de",
      "ep"
    ],
    [
      "!\"",
      " said "
    ],
    [
      "c",
      "tor"
    ],
    [
      "us",
      "u"
    ],
    [
      "beh",
      "ind "
    ],
    [
      "ation",
      ", "
    ],
    [
      "L",
      "et "
    ],
    [
      "over",
      " the "
    ],
    [
      "f",
      "our"
    ],
    [
      "b",
      "est "
    ],
    [
      "I c",
      "ould "
    ],
    [
      " h",
      "ow"
    ],
    [
      "so",
      "on"
    ],
    [
      "how",
      "ever"
    ],
    [
      "be",
      "y"
    ],
    [
      "ati",
      "s"
    ],
    [
      "if",
      " I"
    ],
    [
      "pl",
      "ay"
    ],
    [
      "aw",
      "ay"
    ],
    [
      "ed ",
      "with "
    ],
    [
      "fell",
      "ow"
    ],
    [
      "ob",
      "jec"
    ],
    [
      "ti",
      "ll "
    ],
    [
      "dif",
      "fer"
    ],
    [
      "ing",
      " him"
    ],
    [
      "t",
      "ouch"
    ],
    [
      " th",
      "e"
    ],
    [
      "dres",
      "s"
    ],
    [
      "re",
      "p"
    ],
    [
      " wh",
      "en"
    ],
    [
      " h",
      "our"
    ],
    [
      "wh",
      "e"
    ],
    [
      "k",
      "ind "
    ],
    [
      "b",
      "or"
    ],
    [
      "tr",
      "ac"
    ],
    [
      "ed",
      ".\n\n\""
    ],
    [
      "A",
      "s "
    ],
    [
      " a",
      " h"
    ],
    [
      "c",
      "al"
    ],
    [
      " c",
      "ried "
    ],
    [
      " ",
      "of the "
    ],
    [
      ". ",
      "M"
    ],
    [
      "e",
      ".\n\n\""
    ],
    [
      "?",
      "\n"
    ],
    [
      "y",
      "-"
    ],
    [
      "nat",
      "ur"
    ],
    [
      "ai",
      "d"
    ],
    [
      "w",
      "om"
    ],
    [
      "pro",
      "ach"
    ],
    [
      "though",
      " "
    ],
    [
      "tr",
      "ou"
    ],
    [
      "ab",
      "ly "
    ],
    [
      "P",
      "er"
    ],
    [
      "re",
      "ally "
    ],
    [
      "o",
      "t"
    ],
    [
      "nec",
      "ess"
    ],
    [
      "selv",
      "es "
    ],
    [
      "of",
      " them"
    ],
    [
      "t ",
      "and "
    ],
    [
      "par",
      "tic"
    ],
    [
      "p",
      "al"
    ],
    [
      "s",
      ".\n"
    ],
    [
      "pos",
      "ition"
    ],
    [
      " w",
      "e"
    ],
    [
      "to",
      " the\n"
    ],
    [
      ",\"",
      " she "
    ],
    [
      "of",
      " this "
    ],
    [
      "con",
      "t"
    ],
    [
      "b",
      "ook"
    ],
    [
      "look",
      "ing "
    ],
    [
      "out ",
      "of the "
    ],
    [
      "le",
      "g"
    ],
    [
      "av",
      "en"
    ],
    [
      "ent",
      "\n"
    ],
    [
      "an",
      "ts "
    ],
    [
      "No",
      "t "
    ],
    [
      "I",
      "s"
    ],
    [
      "c",
      "ol"
    ],
    [
      "m",
      "a"
    ],
    [
      "b",
      "ow"
    ],
    [
      "Jo",
      "h"
    ],
    [
      "Go",
      "d"
    ],
    [
      "er",
      "\n"
    ],
    [
      "f",
      "lo"
    ],
    [
      "to m",
      "e"
    ],
    [
      "ed ",
      "me "
    ],
    [
      "sp",
      "ir"
    ],
    [
      "the s",
      "ame "
    ],
    [
      "off",
      "ic"
    ],
    [
      "ou",
      "t, "
    ],
    [
      "b",
      "er "
    ],
    [
      "occ",
      "as"
    ],
    [
      ". ",
      "On"
    ],
    [
      "ing",
      " her"
    ],
    [
      "fu",
      "ll "
    ],
    [
      " af",
      "ter"
    ],
    [
      "'",
      "re "
    ],
    [
      ",\n",
      "And "
    ],
    [
      ".\n\n",
      "S"
    ],
    [
      "er",
      "s, "
    ],
    [
      "el",
      "y"
    ],
    [
      "her",
      "e"
    ],
    [
      "in",
      "v"
    ],
    [
      "ther",
      "e"
    ],
    [
      "im",
      "ag"
    ],
    [
      "!",
      "'"
    ],
    [
      "k",
      "ept "
    ],
    [
      "e",
      "k"
    ],
    [
      "fri",
      "end "
    ],
    [
      "s",
      "on "
    ],
    [
      "w",
      "ere\n"
    ],
    [
      ", ",
      "my "
    ],
    [
      "c",
      "irc"
    ],
    [
      "au",
      "ti"
    ],
    [
      "wh",
      "ose "
    ],
    [
      "m",
      "en "
    ],
    [
      "O",
      "h"
    ],
    [
      "w",
      "ait"
    ],
    [
      "e, ",
      "\""
    ],
    [
      "d",
      "em"
    ],
    [
      "chi",
      "ef"
    ],
    [
      "C",
      "om"
    ],
    [
      " repli",
      "ed "
    ],
    [
      "comp",
      "an"
    ],
    [
      "wind",
      "ow"
    ],
    [
      "fi",
      "ve "
    ],
    [
      "tw",
      "ent"
    ],
    [
      "if",
      " he "
    ],
    [
      "re",
      "ceiv"
    ],
    [
      "a",
      "un"
    ],
    [
      "in",
      ", "
    ],
    [
      "med",
      "i"
    ],
    [
      "be",
      "tter "
    ],
    [
      "fi",
      "re"
    ],
    [
      "er",
      "y "
    ],
    [
      "not ",
      "be "
    ],
    [
      " th",
      "ou"
    ],
    [
      "th",
      "r"
    ],
    [
      "seem",
      "ed "
    ],
    [
      "T",
      "o "
    ],
    [
      "ou",
      "th"
    ],
    [
      " m",
      "any "
    ],
    [
      "t ",
      "the "
    ],
    [
      "sud",
      "den"
    ],
    [
      "w",
      "atch"
    ],
    [
      "st",
      "air"
    ],
    [
      "an",
      "ted "
    ],
    [
      "li",
      "gh"
    ],
    [
      "ten",
      "tion"
    ],
    [
      "wor",
      "d "
    ],
    [
      "re",
      "co"
    ],
    [
      "os",
      "t"
    ],
    [
      " s",
      "ome"
    ],
    [
      "as ",
      "the "
    ],
    [
      "'",
      "t"
    ],
    [
      "er",
      "e, "
    ],
    [
      "m",
      "aster"
    ],
    [
      "'",
      "Ar"
    ],
    [
      "to",
      " my "
    ],
    [
      "sh",
      "or"
    ],
    [
      "do",
      "or "
    ],
    [
      "of",
      " her"
    ],
    [
      "t",
      "ed"
    ],
    [
      "Mr. ",
      "B"
    ],
    [
      "at",
      "e, "
    ],
    [
      "per",
      "i"
    ],
    [
      "know",
      "n"
    ],
    [
      "\n",
      "and "
    ],
    [
      " wh",
      "om"
    ],
    [
      "Y",
      "es"
    ],
    [
      "f",
      "av"
    ],
    [
      "pres",
      "ent "
    ],
    [
      "ed ",
      "for"
    ],
    [
      "s",
      "at "
    ],
    [
      "d",
      "g"
    ],
    [
      "m",
      "y\n"
    ],
    [
      "off",
      "er"
    ],
    [
      "they ",
      "were "
    ],
    [
      "c",
      "le"
    ],
    [
      "le",
      "c"
    ],
    [
      "l",
      "and "
    ],
    [
      "do ",
      "not "
    ],
    [
      "h",
      "our"
    ],
    [
      " a",
      "pp"
    ],
    [
      "in",
      " this "
    ],
    [
      "ag",
      "g"
    ],
    [
      " me",
      "an"
    ],
    [
      "vo",
      "ice "
    ]
  ]
}